<unk>	0
<s>	0
</s>	0
▁the	-3.11778
,	-3.27118
.	-3.33913
▁of	-3.60243
▁and	-3.80277
▁in	-3.81052
▁a	-4.02077
s	-4.07618
▁is	-4.31367
▁to	-4.47785
▁was	-4.56154
▁The	-4.71799
▁0000	-4.72956
-	-4.74945
▁(	-4.8136
▁by	-5.06233
▁as	-5.10511
▁for	-5.12938
▁	-5.17305
▁on	-5.2095
'	-5.24247
▁00	-5.29713
)	-5.30421
▁with	-5.47883
▁from	-5.5357
▁an	-5.57773
▁at	-5.61734
▁It	-5.69955
▁0000.	-5.78679
▁"	-5.86665
▁He	-5.87801
:	-5.9027
▁that	-5.92275
▁0000,	-5.94499
▁0	-5.9736
▁his	-6.04082
▁are	-6.11696
▁In	-6.15826
▁or	-6.1845
▁which	-6.18804
▁also	-6.20189
▁0000)	-6.24348
▁he	-6.25121
▁has	-6.2522
▁it	-6.28177
"	-6.30074
▁first	-6.40846
▁A	-6.43771
▁000	-6.45562
▁who	-6.46168
▁-	-6.4751
▁were	-6.49818
e	-6.52048
▁its	-6.56263
▁American	-6.58448
▁be	-6.5887
▁one	-6.60114
a	-6.61537
▁00,	-6.63545
born	-6.65049
▁known	-6.66357
ing	-6.66619
th	-6.67319
;	-6.6878
▁United	-6.85847
ed	-6.85985
▁their	-6.86417
▁been	-6.86751
),	-6.86971
▁two	-6.89492
▁film	-6.93067
▁New	-6.94861
▁had	-6.9617
▁have	-6.9728
▁but	-7.00205
d	-7.00359
▁album	-7.02086
).	-7.03385
y	-7.0549
i	-7.05607
er	-7.08315
▁not	-7.10083
▁after	-7.10342
▁other	-7.10348
n	-7.10494
▁States	-7.10939
▁released	-7.14812
S	-7.15951
▁this	-7.18252
o	-7.18284
▁during	-7.19316
▁located	-7.20614
▁her	-7.20767
▁part	-7.20892
▁University	-7.21072
t	-7.23219
▁She	-7.23625
▁between	-7.24019
▁name	-7.24559
▁used	-7.24731
▁series	-7.27435
▁de	-7.2744
▁This	-7.29058
▁season	-7.29598
▁most	-7.30585
▁played	-7.31376
▁into	-7.31474
▁National	-7.32549
▁County	-7.32985
▁family	-7.34372
▁0,	-7.3462
in	-7.38521
ly	-7.38634
▁World	-7.39839
▁over	-7.40314
▁team	-7.40992
▁I	-7.41902
▁time	-7.42067
▁U	-7.42288
▁all	-7.44018
▁three	-7.45144
▁(00	-7.45431
▁South	-7.45502
▁such	-7.46059
▁former	-7.46919
▁only	-7.48472
▁years	-7.48716
▁species	-7.48974
▁under	-7.49104
▁May	-7.49214
▁more	-7.49439
▁where	-7.49972
▁second	-7.50887
▁S	-7.51521
▁won	-7.51529
▁when	-7.53453
▁including	-7.53674
▁can	-7.53705
▁British	-7.5377
▁member	-7.53775
▁well	-7.54284
▁March	-7.54636
▁village	-7.56678
▁January	-7.56855
▁became	-7.58157
▁state	-7.58668
▁football	-7.58708
▁served	-7.59331
▁September	-7.59555
▁about	-7.59902
▁area	-7.60454
▁August	-7.6053
▁October	-7.61574
▁later	-7.62006
▁number	-7.62086
/	-7.62512
▁until	-7.62985
▁June	-7.63447
▁made	-7.63726
al	-7.64348
▁July	-7.64376
▁they	-7.64572
▁April	-7.65082
▁she	-7.6576
▁through	-7.66297
▁November	-7.66635
▁English	-7.67081
▁War	-7.67271
es	-7.67288
▁band	-7.67494
▁December	-7.68547
0	-7.6855
▁year	-7.68722
m	-7.69236
▁since	-7.69457
▁many	-7.69799
▁population	-7.69848
▁based	-7.69992
▁District	-7.70266
▁B	-7.70496
▁born	-7.7071
▁John	-7.70761
▁than	-7.71089
▁city	-7.71565
▁League	-7.71611
▁being	-7.71684
▁km	-7.72733
▁song	-7.73138
▁may	-7.73741
▁music	-7.73907
▁North	-7.73939
▁February	-7.74986
▁held	-7.75764
▁district	-7.76107
▁As	-7.76147
▁some	-7.76733
]	-7.76762
▁both	-7.78202
▁C	-7.78204
▁single	-7.78937
an	-7.79547
r	-7.8016
▁new	-7.80849
▁work	-7.81224
▁up	-7.827
en	-7.83063
▁found	-7.83105
▁school	-7.8326
▁station	-7.83423
▁several	-7.8356
or	-7.84309
▁company	-7.84315
A	-7.84359
▁group	-7.84406
▁City	-7.85307
▁called	-7.85695
▁people	-7.85867
▁D	-7.86451
▁York	-7.86573
▁published	-7.87671
▁before	-7.87806
▁named	-7.88148
k	-7.88207
▁four	-7.88435
".	-7.88565
man	-7.88574
▁St	-7.88635
▁M	-7.89079
▁town	-7.89408
▁T	-7.89652
▁School	-7.898
▁State	-7.89859
▁His	-7.90573
▁French	-7.90767
▁television	-7.91585
▁German	-7.91645
▁early	-7.92153
▁E	-7.93798
▁then	-7.94319
",	-7.94543
▁professional	-7.94676
▁mi	-7.94956
▁They	-7.9548
c	-7.96033
▁player	-7.96943
▁0000),	-7.97354
us	-7.97386
▁0,000	-7.97922
C	-7.99116
▁place	-7.99207
▁politician	-7.9962
▁R	-7.99759
▁written	-8.00712
▁best	-8.00737
▁while	-8.00899
▁O	-8.01035
g	-8.01301
▁game	-8.01338
▁On	-8.01596
▁include	-8.02254
▁&	-8.02462
▁north	-8.02633
▁same	-8.02875
▁P	-8.02958
N	-8.02971
▁built	-8.03118
▁G	-8.03138
on	-8.03234
▁national	-8.03433
▁re	-8.03576
▁K	-8.03802
▁century	-8.03924
▁produced	-8.04114
▁within	-8.04282
▁out	-8.04722
▁River	-8.05009
▁West	-8.05202
▁would	-8.05334
▁directed	-8.0543
u	-8.05784
▁England	-8.06265
▁south	-8.06904
▁system	-8.08622
▁After	-8.08662
to	-8.09888
▁At	-8.09914
▁title	-8.10066
▁following	-8.10561
▁use	-8.10776
st	-8.11307
▁world	-8.11506
▁F	-8.12133
▁club	-8.12182
▁against	-8.12277
▁high	-8.12737
l	-8.12781
▁there	-8.1362
▁Australian	-8.14088
▁public	-8.14752
▁third	-8.15038
▁no	-8.15296
▁small	-8.1548
▁II	-8.16834
▁House	-8.17505
▁government	-8.17629
z	-8.17899
▁Australia	-8.17968
▁Indian	-8.18032
▁College	-8.1861
b	-8.18895
B	-8.18936
h	-8.18987
▁home	-8.19176
E	-8.19381
▁career	-8.20062
▁India	-8.20077
▁L	-8.20154
▁co	-8.20302
▁International	-8.2164
▁now	-8.21813
▁founded	-8.22015
▁around	-8.22115
▁J	-8.22286
▁m	-8.22511
▁took	-8.22797
▁died	-8.22894
▁list	-8.237
▁book	-8.23734
D	-8.23969
▁H	-8.24359
W	-8.24532
▁(0000-0000),	-8.24606
the	-8.24686
▁Party	-8.24835
▁currently	-8.25148
▁London	-8.25715
▁Canada	-8.25767
▁received	-8.26047
▁members	-8.26154
▁near	-8.26392
▁local	-8.2663
▁often	-8.26691
▁him	-8.26771
▁footballer	-8.26776
▁(0	-8.26806
▁along	-8.26861
▁Canadian	-8.27198
▁region	-8.27574
de	-8.28033
▁N	-8.28284
▁major	-8.28336
▁San	-8.28449
▁There	-8.28813
▁long	-8.28817
▁France	-8.28827
▁record	-8.29014
ia	-8.2907
re	-8.29074
na	-8.29463
▁show	-8.29629
▁each	-8.29876
▁history	-8.30369
▁building	-8.3041
▁election	-8.30431
▁needed	-8.30524
▁main	-8.30546
▁began	-8.30546
▁final	-8.3057
▁Park	-8.30841
▁Cup	-8.3179
▁genus	-8.31893
▁community	-8.32086
▁end	-8.32302
▁La	-8.32578
▁five	-8.3292
▁country	-8.33174
▁studio	-8.33517
▁California	-8.33517
▁last	-8.33601
▁described	-8.34123
▁form	-8.34264
▁America	-8.34433
▁East	-8.34538
00	-8.35291
▁large	-8.35333
▁[	-8.35415
▁son	-8.35552
▁singer	-8.35624
▁William	-8.35643
▁these	-8.36327
▁included	-8.36533
▁0000-00	-8.37163
▁created	-8.37291
▁death	-8.37332
▁No	-8.37349
▁An	-8.38197
ers	-8.38398
▁original	-8.38428
▁00,000	-8.38722
▁established	-8.38738
▁women	-8.38739
▁line	-8.38844
▁/	-8.38982
▁set	-8.39409
ta	-8.39424
▁event	-8.39539
▁All	-8.39605
▁international	-8.40316
▁Japanese	-8.41102
▁men	-8.41187
▁European	-8.41412
▁W	-8.4221
▁'	-8.42221
▁play	-8.42502
▁them	-8.42661
ic	-8.42977
▁V	-8.43068
▁director	-8.43215
▁general	-8.43233
▁census	-8.43262
▁debut	-8.43538
▁service	-8.443
▁non	-8.44341
f	-8.44409
▁role	-8.44736
le	-8.44781
▁recorded	-8.44857
-00	-8.44889
▁(0000),	-8.44896
▁Award	-8.44909
▁various	-8.44921
ar	-8.45479
▁due	-8.45538
▁different	-8.45676
▁term	-8.4571
▁so	-8.45823
▁Olympics	-8.45879
▁will	-8.45985
citation	-8.46633
▁rock	-8.46956
▁top	-8.47069
▁late	-8.48213
▁For	-8.48236
▁plays	-8.48591
▁games	-8.48746
▁Al	-8.48943
▁Japan	-8.49192
▁Association	-8.49331
▁Football	-8.49384
▁Italian	-8.49402
▁Church	-8.49474
I	-8.49575
▁life	-8.50119
▁head	-8.5036
▁Chinese	-8.50361
▁east	-8.50557
▁Its	-8.50563
▁political	-8.50866
ton	-8.50953
p	-8.5104
▁James	-8.51072
▁any	-8.51352
▁Summer	-8.51489
▁elected	-8.51545
▁competed	-8.51816
▁largest	-8.51958
▁short	-8.52128
▁Province	-8.52152
▁west	-8.52404
▁Army	-8.5305
▁US	-8.53243
▁million	-8.53469
▁George	-8.53595
▁Central	-8.53764
▁writer	-8.54341
▁Germany	-8.54437
▁developed	-8.54633
The	-8.54739
▁Council	-8.54742
▁Records	-8.55301
▁led	-8.55723
▁author	-8.55798
▁originally	-8.56079
▁Division	-8.56366
▁China	-8.56416
▁language	-8.56426
▁Union	-8.5654
▁municipality	-8.56769
▁water	-8.56775
▁considered	-8.5705
▁popular	-8.57369
is	-8.57788
▁period	-8.57845
▁(0000)	-8.5796
▁King	-8.58067
▁worked	-8.58358
ist	-8.58453
▁total	-8.59045
▁development	-8.5909
▁Street	-8.59353
▁research	-8.59499
▁Royal	-8.59545
▁among	-8.59745
▁artist	-8.60006
▁One	-8.60207
▁six	-8.60427
M	-8.60537
▁De	-8.6056
▁back	-8.60628
▁version	-8.61387
ne	-8.61446
▁Kingdom	-8.61469
el	-8.61525
▁includes	-8.61665
▁novel	-8.61668
la	-8.61731
x	-8.61757
▁own	-8.61769
▁Russian	-8.62539
▁given	-8.62777
▁Championship	-8.62869
▁law	-8.63033
▁High	-8.63354
▁formed	-8.63534
▁represented	-8.63661
▁works	-8.64082
▁site	-8.64337
▁side	-8.64745
T	-8.64756
▁features	-8.65022
▁(0000-0000)	-8.65041
▁production	-8.65056
▁coach	-8.65073
▁listed	-8.65371
▁President	-8.65578
▁left	-8.65598
▁house	-8.65623
P	-8.65815
▁0.0	-8.65939
▁kilometres	-8.66348
▁common	-8.66405
ka	-8.66963
ra	-8.67016
."	-8.67187
te	-8.67316
▁miles	-8.6776
▁UK	-8.67994
▁radio	-8.6805
▁Best	-8.6822
F	-8.68613
nd	-8.68697
da	-8.68863
▁video	-8.68869
▁actor	-8.6889
▁refer	-8.68906
▁However	-8.69096
▁designed	-8.69288
▁military	-8.69299
▁children	-8.69417
▁David	-8.69507
▁Europe	-8.69736
ma	-8.69847
▁General	-8.70069
▁Island	-8.70126
▁Robert	-8.70341
G	-8.70343
land	-8.70367
▁Western	-8.70598
▁art	-8.70606
▁field	-8.70839
.[	-8.70929
▁current	-8.7103
▁did	-8.7109
no	-8.71282
▁Republic	-8.71326
▁like	-8.71363
▁church	-8.71541
ism	-8.71601
▁During	-8.7291
▁approximately	-8.73403
▁release	-8.73501
▁Spanish	-8.73826
▁events	-8.73888
▁party	-8.74073
ch	-8.74111
▁order	-8.74569
▁capital	-8.75067
▁having	-8.75278
as	-8.753
et	-8.75582
O	-8.75628
▁owned	-8.75784
K	-8.7581
▁very	-8.75855
▁power	-8.75901
▁level	-8.76076
▁college	-8.76308
▁Co	-8.76318
▁age	-8.76371
▁central	-8.76411
▁Lake	-8.76444
▁because	-8.77062
▁competition	-8.77218
")	-8.77296
▁Club	-8.7733
▁Minister	-8.77375
ley	-8.77654
▁those	-8.7783
▁president	-8.77847
▁live	-8.77891
▁Roman	-8.78021
▁still	-8.78174
son	-8.78211
▁Group	-8.78247
▁league	-8.78303
▁Africa	-8.78434
▁northern	-8.7876
▁Company	-8.78908
▁moved	-8.79195
▁Zealand	-8.79395
▁important	-8.79429
▁Her	-8.79701
▁appeared	-8.79871
▁Air	-8.79919
▁using	-8.80179
▁business	-8.80315
▁To	-8.80371
▁office	-8.80489
▁Hall	-8.80629
▁Charles	-8.80643
▁day	-8.80811
▁Film	-8.80839
▁war	-8.81004
um	-8.81028
▁started	-8.81136
▁Me	-8.81165
▁films	-8.81221
▁program	-8.81453
▁tournament	-8.81585
▁modern	-8.8165
ry	-8.81681
▁From	-8.82171
ian	-8.82191
▁times	-8.82216
▁railway	-8.82297
▁southern	-8.82557
▁Music	-8.82584
▁Man	-8.82777
▁(0000	-8.82948
j	-8.82995
up	-8.83024
▁Re	-8.83116
▁Road	-8.83159
▁Academy	-8.8358
▁Paul	-8.83721
▁Thomas	-8.83735
▁lead	-8.8374
▁become	-8.83962
▁TV	-8.84002
▁(000	-8.84095
▁full	-8.84529
▁character	-8.84662
▁father	-8.84872
▁Washington	-8.84971
▁Greek	-8.85221
▁African	-8.85437
▁teams	-8.85462
▁fourth	-8.85481
▁countries	-8.85662
▁un	-8.85808
▁usually	-8.85822
▁social	-8.85994
▁Institute	-8.86028
▁First	-8.86164
▁sold	-8.862
▁position	-8.86481
▁Ireland	-8.86495
▁design	-8.86531
▁story	-8.86683
▁(0000).	-8.8684
at	-8.87444
▁services	-8.87455
▁county	-8.87484
▁similar	-8.87484
H	-8.87922
▁Texas	-8.88016
▁X	-8.88166
▁across	-8.88173
▁Center	-8.88312
▁just	-8.8835
rd	-8.88549
▁land	-8.88698
R	-8.88769
▁playing	-8.88937
L	-8.89007
▁producer	-8.89062
▁These	-8.89094
▁Le	-8.89282
▁songs	-8.89304
▁race	-8.89454
▁do	-8.89463
▁c	-8.89511
▁Court	-8.89528
▁support	-8.89687
▁drama	-8.89775
▁appointed	-8.89933
▁opened	-8.90048
▁much	-8.90215
▁Department	-8.90628
▁Championships	-8.90845
▁students	-8.91097
▁type	-8.91122
co	-8.91171
dis	-8.91216
▁river	-8.91433
▁previously	-8.91484
▁another	-8.91545
▁road	-8.91773
▁official	-8.91953
li	-8.91989
▁Assembly	-8.92097
▁track	-8.92673
ˈ	-8.92732
able	-8.92908
▁Irish	-8.9292
▁range	-8.93402
▁Michael	-8.93403
▁plant	-8.93516
▁Since	-8.93734
▁areas	-8.93897
▁style	-8.94109
▁retired	-8.94203
ation	-8.9428
am	-8.94361
▁post	-8.94416
▁Catholic	-8.94461
▁sometimes	-8.94498
▁commonly	-8.94545
▁came	-8.9459
▁d	-8.94679
▁Bay	-8.94754
▁featured	-8.94879
▁joined	-8.94925
▁married	-8.94927
ie	-8.95041
▁province	-8.95107
-0	-8.95187
▁per	-8.95319
▁Great	-8.95485
▁episode	-8.95643
ri	-8.95743
▁Navy	-8.95776
▁off	-8.95828
▁Society	-8.95988
▁Christian	-8.96117
▁right	-8.96153
▁island	-8.96225
▁run	-8.96496
ity	-8.96529
▁went	-8.96572
▁native	-8.96592
▁El	-8.96639
based	-8.96777
▁performed	-8.96798
▁operated	-8.9693
▁Grand	-8.97229
▁Z	-8.97513
also	-8.98285
▁Parliament	-8.98421
▁traditional	-8.98603
▁open	-8.98616
▁addition	-8.98686
▁Poland	-8.98706
▁could	-8.98725
▁down	-8.98821
▁books	-8.98908
▁few	-8.98998
▁Wales	-8.99072
▁actress	-8.99092
ni	-8.9914
▁According	-8.99144
▁lies	-8.99291
▁administrative	-8.99374
▁body	-8.99396
▁organization	-8.99481
▁Saint	-8.99515
▁available	-8.99586
▁starring	-8.99748
▁Historic	-8.99878
and	-8.9996
▁Henry	-8.99989
ro	-9.00197
▁awarded	-9.00203
ion	-9.00336
▁active	-9.00394
▁edition	-9.0046
▁000,000	-9.00944
▁example	-9.01039
▁announced	-9.01107
▁seven	-9.01158
▁making	-9.01377
▁although	-9.01746
time	-9.01798
▁finished	-9.02171
▁referred	-9.02296
▁sea	-9.02413
w	-9.02434
▁serving	-9.0251
one	-9.02655
▁Games	-9.02727
▁Black	-9.02779
▁stage	-9.02838
▁contains	-9.02854
▁Awards	-9.03135
▁chart	-9.03264
▁Red	-9.03291
▁present	-9.03466
▁Northern	-9.03474
▁leading	-9.03625
▁private	-9.03654
v	-9.03873
▁point	-9.04017
▁science	-9.04122
▁department	-9.04164
▁class	-9.04239
▁half	-9.04281
▁education	-9.04306
▁{\	-9.0431
▁model	-9.0459
▁professor	-9.04697
▁independent	-9.04828
year	-9.04884
▁Act	-9.05082
▁round	-9.05236
▁Los	-9.0527
▁Sir	-9.05272
▁make	-9.0535
me	-9.05495
▁seat	-9.05647
ya	-9.05688
▁Scottish	-9.05848
ge	-9.05992
▁wife	-9.06051
▁label	-9.06181
▁throughout	-9.06264
▁(0.0	-9.06713
▁network	-9.06751
▁Some	-9.06826
▁project	-9.06872
▁center	-9.0688
▁Mexico	-9.06938
▁working	-9.07072
▁Festival	-9.07139
▁mid	-9.07252
▁if	-9.07267
▁data	-9.07268
▁award	-9.077
ur	-9.07717
▁human	-9.07897
▁lost	-9.07982
▁without	-9.08008
▁western	-9.08103
▁eight	-9.08161
▁control	-9.08393
▁Museum	-9.08435
▁wrote	-9.08453
▁Dutch	-9.08513
▁basketball	-9.08611
▁white	-9.08647
▁0-0	-9.08713
▁related	-9.08714
▁Peter	-9.09172
▁reached	-9.09352
▁metres	-9.09633
▁others	-9.09668
▁car	-9.09697
▁comedy	-9.09713
▁highest	-9.09799
▁Art	-9.09943
▁media	-9.0995
▁division	-9.09989
ine	-9.10013
▁Italy	-9.10149
▁medal	-9.10287
▁brother	-9.10316
▁musical	-9.10432
▁park	-9.1047
▁information	-9.10691
▁again	-9.10896
▁Richard	-9.10971
▁what	-9.11065
▁together	-9.11252
▁Soviet	-9.11409
ca	-9.11798
▁magazine	-9.11808
▁consists	-9.11951
▁Russia	-9.11969
di	-9.11971
class	-9.11989
J	-9.11995
▁Democratic	-9.12009
▁Hill	-9.12025
▁daughter	-9.1207
▁result	-9.12107
▁free	-9.12131
▁Florida	-9.12207
▁Women	-9.12478
▁process	-9.12536
▁old	-9.12545
▁historic	-9.12672
▁special	-9.1268
▁When	-9.127
▁however	-9.12914
▁whose	-9.12918
▁leader	-9.12947
▁Virginia	-9.1301
os	-9.1302
ner	-9.13025
il	-9.13284
▁win	-9.1339
id	-9.13502
▁commercial	-9.13774
▁returned	-9.14025
it	-9.1407
by	-9.14286
▁la	-9.14322
▁eastern	-9.14326
▁Register	-9.14363
ville	-9.14565
▁centre	-9.14597
▁ft	-9.14671
▁regional	-9.14694
▁e	-9.14934
▁systems	-9.15089
▁light	-9.15183
(	-9.15308
▁black	-9.15787
▁generally	-9.15843
▁case	-9.15882
▁way	-9.16315
men	-9.16457
▁Although	-9.16729
▁Paris	-9.16739
▁gold	-9.16746
▁Spain	-9.16868
▁Billboard	-9.1691
▁00-	-9.16934
▁Chicago	-9.1712
▁air	-9.17242
▁previous	-9.17388
ti	-9.17794
▁Carolina	-9.17821
Russian	-9.18149
▁Iran	-9.18221
▁primarily	-9.18322
▁singles	-9.18697
▁stars	-9.18843
▁sub	-9.18954
▁ten	-9.18982
▁Government	-9.18993
V	-9.19018
▁With	-9.19048
▁Pennsylvania	-9.19113
▁By	-9.19129
▁winning	-9.19515
▁Swedish	-9.19535
▁00%	-9.19536
▁Sea	-9.19581
ː	-9.19609
▁Force	-9.19682
▁industry	-9.19763
▁al	-9.19813
▁pre	-9.19951
ko	-9.20276
▁successful	-9.20417
▁Y	-9.20444
▁Go	-9.2063
▁Joseph	-9.20789
▁officer	-9.20853
▁associated	-9.20859
▁construction	-9.20869
▁My	-9.20932
▁parish	-9.20934
▁collection	-9.21109
▁replaced	-9.21184
▁feature	-9.21257
▁either	-9.21297
▁Mary	-9.21331
▁aired	-9.21559
▁Southern	-9.21837
▁introduced	-9.21856
▁space	-9.21876
é	-9.219
▁Valley	-9.21972
▁composed	-9.2207
▁families	-9.22121
▁serves	-9.2221
▁0000-0000	-9.22312
lin	-9.22509
mi	-9.22572
▁every	-9.22575
▁notable	-9.22579
▁even	-9.22721
▁buildings	-9.22963
▁continued	-9.23029
▁Super	-9.23052
ir	-9.23066
ter	-9.23085
un	-9.23195
▁situated	-9.23228
ja	-9.23284
▁Latin	-9.23323
ina	-9.23433
▁natural	-9.23444
▁Love	-9.23816
▁parts	-9.2382
playstyle	-9.23842
▁Angeles	-9.24129
▁though	-9.2419
▁means	-9.24225
▁followed	-9.24264
▁groups	-9.24423
▁surname	-9.24536
▁Edward	-9.2454
▁civil	-9.24649
&	-9.24728
▁White	-9.24809
▁performance	-9.2481
▁man	-9.24857
▁sports	-9.24912
▁Be	-9.24912
va	-9.24966
▁Battle	-9.25177
▁runs	-9.25189
▁famous	-9.25247
se	-9.25344
▁So	-9.25587
▁Green	-9.25702
▁You	-9.25747
▁albums	-9.25776
▁numerous	-9.25778
▁hit	-9.25894
▁further	-9.26023
▁ship	-9.26075
▁involved	-9.2608
000	-9.26136
do	-9.26401
ling	-9.26484
▁broadcast	-9.26486
▁p	-9.2652
▁Star	-9.26574
▁success	-9.26754
American	-9.26896
▁Mar	-9.26957
▁said	-9.26958
▁movement	-9.26974
▁young	-9.27104
▁match	-9.2711
▁championship	-9.2715
▁Polish	-9.27236
ad	-9.27287
▁Scotland	-9.27386
▁primary	-9.27453
ment	-9.27497
ha	-9.27525
▁next	-9.27582
ke	-9.27594
▁meaning	-9.27603
▁close	-9.27613
▁fifth	-9.27648
▁individual	-9.27845
▁Dr	-9.27969
▁mainly	-9.28229
▁Line	-9.28279
▁structure	-9.28426
▁formerly	-9.28631
den	-9.28699
▁commune	-9.2871
▁Pro	-9.28821
▁Region	-9.28879
▁less	-9.29007
▁Asia	-9.29049
▁days	-9.29179
▁While	-9.29199
ul	-9.29238
▁Most	-9.29315
▁pronunciation	-9.29379
▁action	-9.29384
ki	-9.29499
▁unit	-9.29513
go	-9.29602
▁theory	-9.29809
▁People	-9.29931
▁aircraft	-9.29933
}	-9.30047
▁annual	-9.30092
▁via	-9.30238
▁low	-9.30295
▁)	-9.30335
▁Empire	-9.30513
▁mostly	-9.30563
▁least	-9.30595
ve	-9.30921
▁take	-9.3095
▁degree	-9.30981
▁composer	-9.30995
▁completed	-9.31025
▁founder	-9.31025
▁historical	-9.31032
▁launched	-9.3127
▁study	-9.31285
▁Second	-9.31299
▁Conference	-9.3137
▁variety	-9.3139
ce	-9.31393
▁matches	-9.31421
▁states	-9.31473
▁market	-9.31636
▁Korean	-9.31645
ji	-9.31699
▁players	-9.31828
▁roles	-9.31873
▁schools	-9.32069
day	-9.32266
▁Martin	-9.32562
▁Columbia	-9.32683
▁Old	-9.32868
za	-9.3289
ga	-9.32946
▁computer	-9.3295
▁Smith	-9.33099
▁ground	-9.33178
▁significant	-9.33228
▁Men	-9.33369
▁di	-9.3342
▁word	-9.33426
sen	-9.33482
ak	-9.3359
▁female	-9.33633
line	-9.33672
▁signed	-9.33715
▁university	-9.33894
▁seen	-9.33929
wa	-9.33967
▁editor	-9.3431
▁taken	-9.3445
▁added	-9.34502
▁00.0	-9.3465
▁Committee	-9.3465
▁musician	-9.34654
ive	-9.34866
▁Railway	-9.34934
▁standard	-9.35019
im	-9.35039
▁Ohio	-9.35327
▁Tour	-9.35659
ba	-9.35851
▁wide	-9.35876
▁artists	-9.36013
▁rights	-9.3606
▁once	-9.36246
▁health	-9.36428
▁Louis	-9.36651
▁person	-9.3666
▁complex	-9.3672
▁executive	-9.36779
▁Mark	-9.36787
ate	-9.36798
▁Illinois	-9.36839
▁especially	-9.36942
▁square	-9.37005
▁Town	-9.37041
▁provide	-9.37065
field	-9.37113
mo	-9.37258
▁ice	-9.37312
▁("	-9.37437
▁Congress	-9.37459
ty	-9.37537
!	-9.37576
▁Eastern	-9.37613
▁forces	-9.37682
▁upon	-9.3771
▁ancient	-9.37758
▁does	-9.3778
▁Day	-9.37782
▁Pacific	-9.37829
▁Professor	-9.37853
▁medical	-9.38067
▁Big	-9.38188
▁champion	-9.3836
ard	-9.38748
▁above	-9.38988
▁elections	-9.39008
▁Arts	-9.39096
▁section	-9.39104
▁Bar	-9.39114
▁studied	-9.39213
▁Service	-9.39397
▁Olympic	-9.39483
▁Lee	-9.39549
▁senior	-9.39642
▁rural	-9.39646
▁forms	-9.39649
▁shows	-9.3974
▁provides	-9.39755
▁Research	-9.39889
▁feet	-9.39902
▁culture	-9.39912
▁Other	-9.39917
▁i	-9.39953
▁Radio	-9.3998
▁Ko	-9.39982
▁Top	-9.40042
▁moth	-9.40134
▁academic	-9.40332
▁metal	-9.40481
▁Creek	-9.40498
▁length	-9.40542
X	-9.40666
ana	-9.40724
▁Ontario	-9.40777
▁Bo	-9.4081
▁Places	-9.40826
▁regular	-9.40896
▁location	-9.40956
▁Norwegian	-9.41066
▁points	-9.41143
▁Science	-9.41247
▁Ar	-9.41288
U	-9.41294
▁training	-9.41321
▁great	-9.41501
▁Rock	-9.41517
▁itself	-9.4157
▁Governor	-9.41622
▁union	-9.4178
▁poet	-9.41847
▁Con	-9.42022
▁Board	-9.42165
▁seasons	-9.42242
be	-9.42324
▁Law	-9.42479
[	-9.42489
French	-9.42553
▁Rural	-9.4278
▁self	-9.42798
▁Year	-9.42846
▁management	-9.42854
▁journalist	-9.42908
▁companies	-9.4321
▁multiple	-9.43336
wood	-9.43338
▁Georgia	-9.43425
ness	-9.43512
age	-9.43519
▁remained	-9.43531
▁Chief	-9.43547
▁overall	-9.43637
▁Two	-9.43663
▁multi	-9.43708
▁Sun	-9.43734
▁manager	-9.43865
▁names	-9.43873
▁placed	-9.44014
▁trade	-9.44441
▁ran	-9.44462
▁closed	-9.44469
▁episodes	-9.44486
▁material	-9.44495
ov	-9.44548
▁Major	-9.4463
▁terms	-9.44633
▁spent	-9.44683
ham	-9.44829
▁Their	-9.4488
▁Ma	-9.44933
▁Born	-9.44952
▁never	-9.45069
▁Senate	-9.4524
▁living	-9.45265
Chinese	-9.45285
Z	-9.45301
Persian	-9.4533
▁base	-9.4544
▁date	-9.45449
▁court	-9.45452
▁Civil	-9.45589
der	-9.45686
▁Republican	-9.45692
▁running	-9.45719
lo	-9.45742
▁hockey	-9.45811
▁outside	-9.45827
▁Massachusetts	-9.45879
▁products	-9.45884
sa	-9.45894
chi	-9.45988
▁border	-9.46114
▁ended	-9.46284
less	-9.46443
▁Car	-9.46497
ant	-9.46601
▁real	-9.46681
▁recording	-9.46689
▁lived	-9.46744
▁software	-9.46853
▁property	-9.46912
▁channel	-9.46921
▁anti	-9.46939
▁Kong	-9.47021
▁defeated	-9.47023
▁Michigan	-9.47171
▁refers	-9.47374
▁widely	-9.47419
ol	-9.47475
▁Bank	-9.47485
▁prominent	-9.47498
▁route	-9.476
▁Brazil	-9.47634
▁mountain	-9.478
▁becoming	-9.47819
▁0.00	-9.47941
▁particularly	-9.47997
ous	-9.48201
▁Director	-9.48359
ting	-9.48441
▁source	-9.48509
▁Sa	-9.48569
▁Di	-9.48585
▁Inc	-9.48734
▁Queen	-9.48753
▁Don	-9.48759
▁00-00	-9.48961
▁beginning	-9.48991
▁Hong	-9.49129
▁rugby	-9.49235
▁Centre	-9.49312
▁chief	-9.49411
▁Series	-9.49459
▁(0,000	-9.4948
ized	-9.4957
con	-9.49621
▁Hot	-9.4966
▁provided	-9.49731
idae	-9.49883
▁eventually	-9.4997
▁Prince	-9.50161
▁Mo	-9.50182
▁technology	-9.50358
German	-9.50366
▁Station	-9.50413
▁practice	-9.50464
▁coast	-9.50476
▁Coast	-9.50574
▁00°00′00′′	-9.50586
▁Corporation	-9.50644
▁board	-9.50669
ny	-9.5076
▁months	-9.50815
▁Lord	-9.5085
▁III	-9.50852
▁Britain	-9.50969
bo	-9.5102
▁Public	-9.51039
▁legal	-9.51181
▁almost	-9.51227
▁killed	-9.51371
▁nine	-9.51471
▁red	-9.51558
▁pop	-9.51629
▁programs	-9.51678
▁typically	-9.51915
▁earlier	-9.52034
▁studies	-9.52083
▁characters	-9.52104
▁lower	-9.5217
▁how	-9.52173
▁premiered	-9.5233
side	-9.52335
ger	-9.52423
▁sound	-9.52456
▁oldest	-9.52486
▁himself	-9.52513
ler	-9.52543
▁Many	-9.52553
▁baseball	-9.52568
▁cover	-9.52587
▁languages	-9.52591
▁majority	-9.5264
▁Frank	-9.52729
▁Middle	-9.52758
▁appearance	-9.52818
▁Education	-9.53056
▁selected	-9.53136
▁painter	-9.53185
▁Asian	-9.53246
▁Member	-9.53429
▁star	-9.53439
▁particular	-9.5356
▁Township	-9.53696
per	-9.53777
ze	-9.54072
▁whom	-9.54084
▁BC	-9.54087
▁featuring	-9.54212
▁silver	-9.54391
▁rather	-9.54412
▁Korea	-9.54535
▁constituency	-9.54586
▁nominated	-9.54723
▁limited	-9.54785
▁Long	-9.54801
▁Islands	-9.54917
▁awards	-9.54941
▁operations	-9.55079
▁tracks	-9.55109
▁food	-9.55149
▁solo	-9.55218
▁code	-9.55239
▁mother	-9.55253
▁Pakistan	-9.55277
▁Na	-9.55343
▁federal	-9.55377
ek	-9.55445
ang	-9.55446
▁fire	-9.55509
▁change	-9.55554
▁BBC	-9.55595
▁Ka	-9.55603
▁digital	-9.5561
▁tour	-9.55724
▁issues	-9.55744
▁Commission	-9.55748
▁better	-9.55783
▁personal	-9.55819
Y	-9.55935
pa	-9.55952
ies	-9.56131
▁Mexican	-9.56134
off	-9.56272
▁Alexander	-9.56408
▁writing	-9.56443
ford	-9.56469
▁woman	-9.56616
▁Victoria	-9.56708
ary	-9.56745
▁separate	-9.56957
▁complete	-9.56984
▁Van	-9.57029
▁Route	-9.57176
▁newspaper	-9.57244
▁remains	-9.57247
▁host	-9.57373
▁format	-9.57445
▁must	-9.57496
▁Area	-9.57499
▁f	-9.57555
▁recent	-9.57563
▁fiction	-9.57681
▁ever	-9.5769
▁see	-9.5776
▁covers	-9.57899
west	-9.5797
▁Brown	-9.58147
▁changed	-9.58197
▁noted	-9.58231
▁Do	-9.58232
▁religious	-9.58275
▁Mount	-9.58411
▁Li	-9.58451
▁museum	-9.58475
▁representing	-9.58512
▁Fort	-9.58586
▁Tom	-9.58745
▁winner	-9.59032
▁Legislative	-9.59059
▁today	-9.59063
▁according	-9.59156
▁surface	-9.59434
▁front	-9.59455
berg	-9.59457
▁cultural	-9.59516
▁responsible	-9.59544
century	-9.59735
▁=	-9.59741
▁sixth	-9.5978
▁Life	-9.59796
▁oil	-9.59838
▁larger	-9.60194
▁specific	-9.60276
▁Sri	-9.60397
▁era	-9.60414
▁Secretary	-9.60522
▁bridge	-9.60547
▁Highway	-9.6059
▁racing	-9.60592
▁far	-9.60666
▁uses	-9.60674
▁Jersey	-9.607
▁officially	-9.60861
▁Jean	-9.60901
▁interest	-9.60929
▁Stadium	-9.60952
▁units	-9.61383
▁online	-9.61407
▁access	-9.61417
▁bank	-9.61429
mer	-9.61453
▁association	-9.61468
▁status	-9.61553
▁king	-9.61597
▁Port	-9.61808
▁opening	-9.61831
of	-9.6186
est	-9.61871
▁n	-9.61882
ey	-9.61888
▁Avenue	-9.61914
▁NCAA	-9.6216
ite	-9.62217
▁Following	-9.62242
▁Sweden	-9.62246
▁police	-9.62251
▁x	-9.62285
com	-9.62306
▁Pan	-9.62449
▁higher	-9.62584
don	-9.62598
▁minor	-9.62829
▁engine	-9.62908
▁settlement	-9.62923
▁past	-9.63089
▁Ben	-9.63119
▁cities	-9.63165
▁Francisco	-9.63194
ten	-9.63207
▁dedicated	-9.63212
▁initially	-9.63305
▁Ha	-9.63328
▁Turkey	-9.63391
▁cricket	-9.63391
▁presented	-9.6343
▁Q	-9.6343
▁economic	-9.63456
▁Te	-9.63495
▁Ba	-9.63519
▁subsequently	-9.63536
▁subject	-9.6354
▁lake	-9.63661
▁movie	-9.63862
ah	-9.63929
▁Blue	-9.6394
▁stories	-9.6406
▁saw	-9.64167
▁Bridge	-9.64217
▁function	-9.6422
si	-9.64239
ization	-9.64318
▁Jr	-9.64344
old	-9.64348
for	-9.64385
▁mm	-9.64451
▁Per	-9.64476
▁earned	-9.64533
▁candidate	-9.6456
east	-9.64566
▁Sydney	-9.64591
▁Little	-9.64618
▁Su	-9.64703
em	-9.64714
▁endemic	-9.64874
pe	-9.64925
▁plants	-9.64982
▁Boston	-9.6513
▁Young	-9.65208
▁council	-9.65337
▁force	-9.65357
▁Netherlands	-9.65393
▁entered	-9.65423
ut	-9.65483
▁Or	-9.65492
▁Open	-9.65492
▁hosted	-9.65636
way	-9.65644
▁activities	-9.65679
▁[ˈ	-9.65714
han	-9.65741
▁Czech	-9.65753
▁mixed	-9.65812
▁campaign	-9.65871
ck	-9.65963
▁latter	-9.66001
▁return	-9.66003
▁Toronto	-9.6614
▁size	-9.66154
▁summer	-9.66171
▁Under	-9.66266
▁Berlin	-9.66334
-0000	-9.66343
▁b	-9.6636
▁figure	-9.6637
▁Mac	-9.66413
▁bronze	-9.66604
▁financial	-9.66619
▁help	-9.66764
▁energy	-9.66819
▁Representatives	-9.66821
rs	-9.66923
▁appearances	-9.66972
▁Media	-9.67103
▁cast	-9.67126
io	-9.67181
▁Prize	-9.67371
▁participated	-9.67461
▁Cross	-9.6758
])	-9.67758
▁acquired	-9.67819
▁course	-9.67894
▁certain	-9.68052
▁away	-9.68107
▁Santa	-9.68204
▁k	-9.68221
▁brand	-9.68241
vi	-9.68253
▁Theatre	-9.68295
▁contemporary	-9.68351
▁middle	-9.6838
▁attended	-9.68448
ci	-9.68464
▁thus	-9.68514
▁Duke	-9.68604
▁Sam	-9.68636
▁Daniel	-9.68647
▁operating	-9.68662
▁instead	-9.6873
▁renamed	-9.68828
▁Foundation	-9.68855
▁v	-9.68867
ung	-9.69019
kin	-9.69173
▁should	-9.6919
▁0-	-9.69211
▁Norway	-9.69245
▁Jewish	-9.69295
▁Atlantic	-9.69347
▁concept	-9.69348
▁Health	-9.6942
he	-9.69462
▁Du	-9.69463
▁Brazilian	-9.69486
▁marine	-9.69623
au	-9.69642
tra	-9.69647
▁pro	-9.69725
▁lawyer	-9.69775
▁List	-9.70039
▁Airport	-9.70138
▁Tamil	-9.70188
sh	-9.70261
▁jazz	-9.70362
▁Land	-9.70592
▁elements	-9.70733
▁additional	-9.70765
▁Jack	-9.70849
▁urban	-9.70975
▁Premier	-9.71079
▁Ministry	-9.7119
▁Voivodeship	-9.71376
];	-9.71405
▁taking	-9.71485
▁forward	-9.7151
▁prior	-9.7152
▁below	-9.71536
ata	-9.71556
▁Bill	-9.71576
▁Hospital	-9.71648
▁recognized	-9.71679
▁succeeded	-9.71849
q	-9.71888
ker	-9.71906
▁student	-9.72125
well	-9.72199
like	-9.72246
▁Jan	-9.72249
▁Federation	-9.72312
▁average	-9.7234
▁worldwide	-9.72406
▁product	-9.72414
▁managed	-9.72437
▁literature	-9.7249
▁battle	-9.72614
ru	-9.72729
▁possible	-9.72789
▁guitarist	-9.72826
▁titles	-9.72829
▁firm	-9.72831
▁simply	-9.72834
▁historian	-9.72844
lu	-9.72854
pur	-9.72886
▁Mi	-9.72889
ish	-9.7294
▁Scott	-9.72971
▁branch	-9.72995
▁lives	-9.73025
▁Jones	-9.73046
▁documentary	-9.73047
je	-9.73108
▁peaked	-9.73174
▁God	-9.73178
▁USA	-9.73195
▁method	-9.73239
▁Gold	-9.73298
▁Philippines	-9.7331
▁good	-9.73433
▁society	-9.73481
▁Earth	-9.73482
▁derived	-9.73518
▁architect	-9.73536
▁Ni	-9.73581
▁t	-9.73588
▁Federal	-9.73618
▁houses	-9.73648
ally	-9.73656
ot	-9.73798
▁Winter	-9.73837
▁Danish	-9.73921
▁hand	-9.73933
▁army	-9.73953
▁CD	-9.73962
▁Both	-9.7397
▁du	-9.74067
▁cases	-9.74137
▁designated	-9.74148
▁serve	-9.74154
▁intended	-9.74244
▁entire	-9.74289
▁distribution	-9.74354
▁nearby	-9.74376
▁discovered	-9.74434
0)	-9.74465
▁male	-9.74469
ster	-9.74469
▁Turkish	-9.74509
▁Chi	-9.74535
▁con	-9.7457
▁districts	-9.74599
▁Wisconsin	-9.74623
▁Francis	-9.74657
▁caused	-9.7466
known	-9.74781
▁follows	-9.74804
▁minister	-9.74878
dy	-9.74922
▁double	-9.74993
▁constructed	-9.75034
▁Un	-9.75048
▁rules	-9.75054
▁architecture	-9.75066
ber	-9.75079
▁go	-9.75098
▁rest	-9.75152
ino	-9.75174
les	-9.75305
▁key	-9.75313
▁Oxford	-9.75333
Arabic	-9.75435
▁theatre	-9.75471
▁Sports	-9.75479
▁founding	-9.75503
▁start	-9.75512
▁Office	-9.75521
▁unincorporated	-9.75599
▁create	-9.75653
▁System	-9.75677
▁Development	-9.7582
ated	-9.75827
▁semi	-9.75887
▁Entertainment	-9.75892
▁protein	-9.75921
ver	-9.75948
▁put	-9.76049
▁stations	-9.76149
▁future	-9.76171
▁reported	-9.76201
▁headquarters	-9.76213
▁sister	-9.76412
▁Can	-9.76426
▁Castle	-9.76549
▁Mountain	-9.76637
cha	-9.76725
▁Order	-9.76769
▁History	-9.76967
▁strong	-9.76969
▁behind	-9.77089
▁towards	-9.77125
▁thought	-9.77168
▁00.00	-9.77324
▁Justice	-9.77325
▁Lo	-9.77355
▁Missouri	-9.77402
▁Elizabeth	-9.77566
▁nature	-9.77577
▁Country	-9.77577
du	-9.77658
now	-9.77667
ku	-9.77816
▁Tu	-9.77986
▁properties	-9.78048
▁businessman	-9.78084
car	-9.78274
▁week	-9.78275
▁Time	-9.78331
▁voice	-9.78368
▁Pa	-9.7837
▁extended	-9.78497
▁Israel	-9.78527
▁cross	-9.786
▁Team	-9.78612
▁En	-9.78643
▁fish	-9.7897
▁Da	-9.79024
▁test	-9.79046
gen	-9.79154
▁Ke	-9.79239
ik	-9.79255
▁Dan	-9.79273
▁Liberal	-9.79292
▁teacher	-9.79311
▁graduated	-9.79439
▁records	-9.79508
▁Golden	-9.79513
▁Book	-9.79565
▁direct	-9.79689
▁Home	-9.79751
▁Network	-9.79769
▁scientific	-9.79797
▁types	-9.79843
▁supported	-9.79938
▁train	-9.79954
▁takes	-9.79988
▁Bishop	-9.80027
▁changes	-9.80034
mar	-9.80038
▁Oregon	-9.80041
ex	-9.80146
▁attack	-9.80204
▁del	-9.80209
po	-9.80263
▁cricketer	-9.80267
▁recently	-9.80295
▁Prime	-9.80332
▁tree	-9.8045
Q	-9.80477
▁dance	-9.80499
▁news	-9.80517
▁Se	-9.8052
▁Times	-9.80571
ell	-9.80714
ney	-9.8077
out	-9.80796
▁We	-9.80808
▁surrounding	-9.80873
▁child	-9.8095
▁Is	-9.80982
zi	-9.81082
▁appears	-9.81097
▁pinyin	-9.81109
▁vote	-9.81136
▁Williams	-9.81142
▁operation	-9.81145
▁defined	-9.81195
▁Nations	-9.81342
ini	-9.81358
▁Arthur	-9.81421
▁Over	-9.81437
▁covered	-9.81535
▁Supreme	-9.81566
ted	-9.81583
▁lines	-9.81642
▁foreign	-9.81684
▁starting	-9.81727
▁Earl	-9.81733
▁midfielder	-9.81766
vo	-9.81857
▁Minnesota	-9.81893
▁inhabitants	-9.81894
▁origin	-9.81915
▁ex	-9.81964
▁effect	-9.81985
▁Pre	-9.8205
▁van	-9.8208
▁Coordinates	-9.82093
▁Ocean	-9.82139
▁Philadelphia	-9.82311
▁platform	-9.82408
▁brought	-9.82453
▁score	-9.82461
▁Indiana	-9.82534
▁chairman	-9.82546
▁Three	-9.82613
▁Ca	-9.82682
sky	-9.82753
▁Queensland	-9.82805
▁Hockey	-9.82828
▁weeks	-9.82922
▁Technology	-9.82932
lan	-9.82941
);	-9.83033
▁policy	-9.83098
▁physical	-9.83101
▁FC	-9.83124
▁alongside	-9.83191
▁highly	-9.83604
▁staff	-9.8361
▁Ten	-9.83614
house	-9.83668
▁festival	-9.83722
ron	-9.83764
ye	-9.83819
que	-9.83864
▁longer	-9.83875
▁tropical	-9.83929
▁Cape	-9.83938
▁Like	-9.84061
▁Ali	-9.84109
jo	-9.84151
▁compilation	-9.84243
▁Po	-9.84267
▁Johnson	-9.84301
▁Portuguese	-9.84353
▁victory	-9.84354
▁Song	-9.84389
▁painting	-9.84393
▁respectively	-9.84403
▁estimated	-9.84403
▁inter	-9.84404
▁copies	-9.84455
▁sent	-9.8448
▁smaller	-9.84484
▁mayor	-9.84505
▁Social	-9.84552
í	-9.84604
▁0000;	-9.84663
▁von	-9.84726
▁Baseball	-9.8474
▁comic	-9.84742
▁Forest	-9.8481
▁nearly	-9.8482
▁heavy	-9.84921
▁able	-9.84975
▁critics	-9.84978
▁EP	-9.84988
▁Show	-9.85006
che	-9.85087
▁capacity	-9.85113
▁neighborhood	-9.85185
▁positive	-9.85203
TV	-9.85257
▁fictional	-9.85308
▁alternative	-9.85341
▁ha	-9.85357
▁Band	-9.85364
▁Gmina	-9.85388
ho	-9.85489
▁guitar	-9.85502
▁versions	-9.85544
▁Par	-9.85566
▁ships	-9.8562
▁engineer	-9.85621
▁Miss	-9.85621
▁communities	-9.85706
ier	-9.85746
▁gave	-9.85748
▁results	-9.85787
▁distance	-9.858
mann	-9.85827
▁analysis	-9.85937
▁Melbourne	-9.86048
▁Har	-9.86097
language	-9.86166
▁divided	-9.86199
▁principal	-9.86225
▁act	-9.86404
▁Ho	-9.86465
▁Maria	-9.86471
▁Andrew	-9.86486
▁songwriter	-9.86568
ran	-9.86577
▁owner	-9.86626
▁Fa	-9.86669
▁street	-9.86721
▁y	-9.86737
▁gained	-9.86792
▁twenty	-9.8688
▁hard	-9.87013
▁Jackson	-9.87243
▁(0000-0000).	-9.87299
ium	-9.8745
ll	-9.87512
▁Quebec	-9.87546
ng	-9.8757
▁engineering	-9.87624
▁Census	-9.87633
▁website	-9.87679
▁opera	-9.87709
bi	-9.87725
▁little	-9.87732
▁directly	-9.87752
▁Maryland	-9.87752
min	-9.87804
́	-9.88051
▁seats	-9.8813
▁Beach	-9.88131
▁Rome	-9.88166
▁article	-9.88401
har	-9.88464
▁largely	-9.88545
▁raised	-9.8857
▁reviews	-9.88584
▁scored	-9.88601
▁journal	-9.88697
▁franchise	-9.88752
▁holds	-9.88793
▁regions	-9.88949
▁Chart	-9.89036
▁value	-9.89146
▁mass	-9.89158
-000	-9.89158
▁Before	-9.89247
▁required	-9.89299
▁shot	-9.89339
bar	-9.89369
á	-9.89489
▁administration	-9.895
era	-9.89556
▁sq	-9.89572
▁arts	-9.89635
▁Tri	-9.89655
▁northwest	-9.8985
▁industrial	-9.89873
▁Press	-9.89935
▁care	-9.89986
▁crime	-9.89996
▁loss	-9.90014
ā	-9.90044
ura	-9.90108
▁classical	-9.90187
nes	-9.90193
sk	-9.90204
pi	-9.90297
town	-9.90315
▁Swiss	-9.90419
▁Channel	-9.90447
▁issue	-9.9047
▁Lu	-9.90482
▁Fox	-9.90695
gi	-9.90735
▁territory	-9.90828
▁turn	-9.90886
▁helped	-9.9089
ts	-9.90923
▁influence	-9.90927
▁merged	-9.90981
▁basis	-9.91047
qui	-9.91087
▁titled	-9.91088
▁acres	-9.9112
▁Am	-9.91179
▁en	-9.91271
▁northeast	-9.91295
▁category	-9.91327
ea	-9.9135
▁clubs	-9.91376
▁stadium	-9.91386
▁conditions	-9.91401
▁hospital	-9.9146
▁failed	-9.91476
▁Khan	-9.91506
▁Bob	-9.91546
▁Sar	-9.91611
▁ranked	-9.91727
▁goal	-9.91728
ī	-9.91742
▁campus	-9.9176
▁dark	-9.91832
▁governor	-9.91873
▁Bell	-9.91884
▁produce	-9.91924
ial	-9.91994
▁Live	-9.92007
▁focus	-9.92033
▁Tennessee	-9.92119
▁mission	-9.92138
▁disease	-9.92158
▁Ne	-9.9216
▁southwest	-9.92212
op	-9.92268
▁Joe	-9.92283
▁Finnish	-9.92294
▁allowed	-9.92325
▁secondary	-9.92419
▁organized	-9.92428
ara	-9.92477
▁estate	-9.92519
▁projects	-9.92638
▁Special	-9.92648
▁issued	-9.92682
▁proposed	-9.92702
▁night	-9.92747
▁Kansas	-9.92779
ena	-9.92788
▁believed	-9.92799
bu	-9.92919
ella	-9.92952
▁content	-9.93057
tic	-9.9313
▁seventh	-9.93206
▁Sciences	-9.93388
▁twice	-9.93475
▁Post	-9.93485
▁command	-9.93529
▁Ti	-9.93545
▁Community	-9.93648
▁rule	-9.93665
▁Romanized	-9.93709
▁Pe	-9.93806
ac	-9.93818
▁formation	-9.93845
▁tennis	-9.9393
▁youth	-9.94012
▁acting	-9.94024
▁offers	-9.94088
▁Fame	-9.94119
▁da	-9.94163
▁Arizona	-9.94212
▁Lady	-9.94214
▁literary	-9.94241
▁Pi	-9.94267
▁Hungarian	-9.94314
▁Cambridge	-9.9433
▁activist	-9.9433
ent	-9.9433
ola	-9.94351
▁Austrian	-9.94604
▁paper	-9.94614
▁appear	-9.94688
▁come	-9.94757
head	-9.94841
▁consisting	-9.94843
ance	-9.94883
▁Television	-9.94967
fa	-9.94991
▁green	-9.95001
▁highway	-9.95013
▁Field	-9.95028
▁beetle	-9.95029
▁effects	-9.95031
yl	-9.95041
▁electronic	-9.95061
▁relationship	-9.95132
▁operates	-9.95211
hu	-9.95216
▁dis	-9.95257
▁purpose	-9.95262
▁Labour	-9.95326
▁assistant	-9.95364
▁security	-9.95398
▁decided	-9.9547
▁Colorado	-9.95492
▁applied	-9.95529
▁distributed	-9.95569
▁Power	-9.9558
▁combined	-9.95656
▁Today	-9.95765
▁southeast	-9.95768
▁Municipality	-9.95799
▁stone	-9.9585
▁occurred	-9.9589
▁containing	-9.95918
▁politics	-9.95921
all	-9.95924
▁Later	-9.95928
▁Prior	-9.95977
ju	-9.95997
▁Junior	-9.96066
kar	-9.96067
▁Mountains	-9.96076
▁Kentucky	-9.9612
▁master	-9.96129
▁organizations	-9.96255
ised	-9.96368
tu	-9.96407
▁Free	-9.96422
▁Metropolitan	-9.96569
▁consecutive	-9.96577
▁shown	-9.96681
▁bar	-9.96701
▁nation	-9.96715
▁sport	-9.96771
▁cause	-9.96827
▁achieved	-9.9686
▁cell	-9.9694
▁unique	-9.97027
ski	-9.97159
▁Tokyo	-9.97333
▁split	-9.97383
hi	-9.97483
▁sources	-9.97489
▁If	-9.97535
▁Good	-9.97542
ii	-9.97663
▁Cha	-9.97697
▁cost	-9.97738
▁promoted	-9.97784
▁Austria	-9.97852
▁Gar	-9.97952
▁remaining	-9.97958
▁Water	-9.97968
▁0000-0000.	-9.98057
▁gas	-9.98134
▁presidential	-9.98136
▁response	-9.98137
▁Iowa	-9.98249
▁More	-9.98288
▁airport	-9.98288
▁locality	-9.98307
▁creation	-9.98451
▁words	-9.98456
▁evidence	-9.98487
▁cm	-9.98594
▁conference	-9.98652
▁treatment	-9.98661
▁activity	-9.98671
▁reference	-9.98714
▁Indonesia	-9.98737
▁critical	-9.98754
▁passed	-9.98768
ica	-9.98823
▁upper	-9.9903
▁Albert	-9.99037
▁rate	-9.99093
back	-9.99097
▁performances	-9.99134
▁Er	-9.99291
▁text	-9.99301
▁Night	-9.99315
gar	-9.99341
▁Welsh	-9.9942
▁Si	-9.99587
ius	-9.9961
▁cells	-9.99611
▁Vietnam	-9.99626
ating	-9.99659
uk	-9.99689
▁programming	-9.99759
▁probably	-9.9978
songwriter	-9.99797
▁Yu	-9.99822
tz	-9.99842
▁(00.0	-9.99847
▁color	-9.99868
▁portion	-9.99872
ray	-9.9988
led	-9.99885
▁Ku	-10.0001
▁representative	-10.0004
▁Argentina	-10.0009
we	-10.0015
▁Each	-10.0018
▁carried	-10.0021
ab	-10.0028
▁leaves	-10.0031
▁Stephen	-10.0031
▁adopted	-10.005
▁numbers	-10.0069
▁marriage	-10.0069
▁speed	-10.0073
▁Wilson	-10.0075
▁Han	-10.0076
▁Corps	-10.0088
▁{	-10.0098
▁contract	-10.01
▁Game	-10.0101
▁here	-10.0102
▁judge	-10.0102
▁global	-10.0111
fer	-10.0111
war	-10.0112
ita	-10.0116
▁forest	-10.0117
▁folk	-10.0117
▁met	-10.0122
▁Medical	-10.0122
▁+	-10.0123
ula	-10.013
▁fought	-10.0132
▁problems	-10.0137
▁represent	-10.0137
▁publication	-10.0151
▁Head	-10.0156
▁individuals	-10.0157
▁dynasty	-10.0165
▁Ge	-10.0171
zo	-10.0175
▁gene	-10.0176
▁chemical	-10.0183
▁\	-10.019
yn	-10.0197
▁Far	-10.0209
▁facilities	-10.0218
▁Walter	-10.0218
ology	-10.0221
▁centuries	-10.0222
▁facility	-10.0222
om	-10.0223
▁Vi	-10.0225
▁designer	-10.0227
▁Switzerland	-10.0241
▁initial	-10.0246
▁Library	-10.0252
▁transport	-10.0253
▁husband	-10.0256
▁Despite	-10.0262
▁fellow	-10.0264
▁Point	-10.0265
ful	-10.0265
▁wing	-10.0267
▁Ta	-10.0273
▁Up	-10.0281
end	-10.0284
▁concert	-10.0296
died	-10.0296
▁suburb	-10.0299
▁Fire	-10.03
▁lyrics	-10.0301
▁comes	-10.0312
▁belonging	-10.0316
kan	-10.032
▁Originally	-10.0325
▁Ray	-10.0326
van	-10.0348
ari	-10.0356
▁regarded	-10.0362
▁Greece	-10.0363
▁00.00000°	-10.0363
▁themselves	-10.0365
▁Davis	-10.0366
▁novels	-10.0366
▁Lewis	-10.0366
▁applications	-10.0367
▁g	-10.0375
so	-10.0379
▁providing	-10.038
▁love	-10.0382
▁Wood	-10.0383
▁Hu	-10.0384
▁Singapore	-10.0386
▁expanded	-10.0387
ani	-10.0388
▁temple	-10.04
▁connected	-10.0403
▁closely	-10.0403
▁direction	-10.0404
ensis	-10.0409
▁rail	-10.041
▁soon	-10.0413
▁theme	-10.0414
▁billion	-10.0417
\	-10.0418
▁Val	-10.0422
▁represents	-10.0438
▁frequently	-10.0442
▁Police	-10.0454
▁Belgian	-10.0456
▁goals	-10.0459
▁offices	-10.046
▁increased	-10.046
fi	-10.0468
▁decision	-10.0469
▁older	-10.0471
▁levels	-10.0474
▁Denmark	-10.0478
▁Affairs	-10.048
ow	-10.0481
gan	-10.0482
▁End	-10.0487
▁honor	-10.049
shi	-10.049
▁inspired	-10.0495
▁Arab	-10.0498
long	-10.05
▁moving	-10.0506
▁credited	-10.0509
▁rank	-10.0515
▁Baron	-10.0517
▁occurs	-10.0522
▁sales	-10.0522
▁Commonwealth	-10.0524
ship	-10.0528
▁Malaysia	-10.0529
ó	-10.0536
let	-10.0544
▁whole	-10.0546
▁unknown	-10.055
tri	-10.0552
▁Pradesh	-10.0553
▁Chris	-10.0568
▁Taylor	-10.0569
La	-10.0575
▁money	-10.0584
▁villages	-10.0598
▁Jo	-10.0599
▁Alabama	-10.0602
▁Master	-10.0609
formerly	-10.061
▁Ph	-10.0618
▁Village	-10.062
▁blue	-10.0625
▁That	-10.0627
▁Four	-10.0627
▁educated	-10.0633
▁Notable	-10.0634
▁Ken	-10.0634
▁application	-10.0665
ano	-10.0681
▁models	-10.0688
▁box	-10.0691
ig	-10.0693
▁flows	-10.0693
▁Medal	-10.0696
▁taught	-10.0698
▁materials	-10.0701
▁equipment	-10.0701
▁identified	-10.0701
▁height	-10.0701
▁Moscow	-10.0703
▁Mike	-10.0705
▁humans	-10.0707
eh	-10.0712
▁etc	-10.0715
▁store	-10.0719
▁Regional	-10.0719
▁growth	-10.0721
▁heart	-10.0726
▁quality	-10.0729
▁FM	-10.0732
▁chain	-10.0736
▁Carl	-10.0744
ez	-10.0747
▁marked	-10.0748
▁Business	-10.0752
▁fall	-10.0758
▁hours	-10.0764
▁fields	-10.0765
ach	-10.0766
▁medals	-10.0775
ven	-10.0775
▁consisted	-10.0786
tal	-10.0788
▁residents	-10.0794
▁Heritage	-10.0803
▁Of	-10.0807
▁captain	-10.0808
▁champions	-10.0812
▁fact	-10.0813
▁claimed	-10.0818
▁guest	-10.0821
tor	-10.0821
▁duo	-10.0822
▁share	-10.0823
▁Ber	-10.0823
▁agent	-10.083
▁Ya	-10.0834
▁Simon	-10.0837
▁domestic	-10.0838
▁transferred	-10.0842
▁charts	-10.0843
ou	-10.0851
▁Anne	-10.086
▁joint	-10.0862
ev	-10.0864
▁prison	-10.087
▁Prix	-10.0871
vin	-10.0876
▁sites	-10.0885
▁Basketball	-10.0891
▁web	-10.0891
▁functions	-10.0891
▁Also	-10.0896
▁generation	-10.0905
▁blood	-10.0906
▁purchased	-10.0906
▁commissioned	-10.0911
▁Emperor	-10.0912
▁vice	-10.0912
▁educational	-10.0921
▁Kar	-10.0926
▁Space	-10.0935
▁Vice	-10.0941
▁allows	-10.0945
▁Metro	-10.0947
▁Bowl	-10.0947
▁animated	-10.0948
▁Journal	-10.0955
▁retirement	-10.0956
▁increase	-10.0956
▁Finland	-10.096
▁we	-10.0963
▁relations	-10.0963
sch	-10.0965
▁allow	-10.0972
▁need	-10.0977
▁Jim	-10.0977
red	-10.0981
▁Singles	-10.101
Spanish	-10.1012
▁Mu	-10.1016
▁Israeli	-10.1025
▁block	-10.1027
use	-10.1034
▁adjacent	-10.1045
▁tradition	-10.1047
▁Sha	-10.1049
▁medieval	-10.1061
▁residential	-10.1075
▁yellow	-10.1076
ring	-10.1079
mon	-10.1097
▁Tar	-10.1099
▁compete	-10.11
▁Christ	-10.1101
▁manufacturer	-10.1102
▁Building	-10.1109
▁Mal	-10.1113
ú	-10.112
▁Ltd	-10.1126
▁places	-10.1129
▁reach	-10.1133
▁Rose	-10.1133
▁visual	-10.1136
▁Holy	-10.1142
more	-10.1144
▁articles	-10.1148
ida	-10.115
▁Lower	-10.1163
see	-10.1163
▁Windows	-10.1164
▁figures	-10.1165
▁move	-10.1169
▁vocals	-10.1171
▁done	-10.1176
▁makes	-10.1179
▁Inter	-10.118
In	-10.1185
ence	-10.1188
▁bishop	-10.1195
▁Conservative	-10.1197
▁Rugby	-10.1199
▁DVD	-10.1201
▁Philip	-10.1203
▁Mississippi	-10.1215
▁view	-10.1228
▁environment	-10.1231
▁extinct	-10.1236
▁Kim	-10.1239
▁Out	-10.1247
▁rare	-10.1248
▁you	-10.1248
▁Project	-10.1251
▁MP	-10.1262
▁Manchester	-10.1263
tes	-10.1272
▁Among	-10.1272
▁Harry	-10.1285
profit	-10.1287
▁NFL	-10.1289
▁Steve	-10.129
ap	-10.1291
yan	-10.1293
▁minutes	-10.1301
▁licensed	-10.1302
▁Belgium	-10.1311
▁attempt	-10.1316
▁conducted	-10.1317
▁peak	-10.1317
ft	-10.1318
▁municipal	-10.1321
▁l	-10.1325
▁experience	-10.1326
▁Fe	-10.1329
▁defender	-10.134
▁Temple	-10.1342
▁locations	-10.1344
▁Ver	-10.1346
▁flight	-10.1355
ich	-10.1357
▁tower	-10.1357
▁Revolution	-10.137
▁structures	-10.1375
▁leaving	-10.1375
▁Studios	-10.1375
▁cut	-10.1378
▁valley	-10.138
▁mathematics	-10.1384
▁planned	-10.1387
▁grew	-10.1389
▁Sky	-10.1391
▁Bi	-10.1391
+	-10.1392
],	-10.1398
▁Anthony	-10.14
▁always	-10.1407
▁Ra	-10.1407
sha	-10.1417
▁Victorian	-10.1419
▁plan	-10.1419
▁vehicle	-10.1427
▁inside	-10.1427
▁Argentine	-10.1432
▁electric	-10.1437
▁authority	-10.1438
▁charge	-10.1442
▁organisation	-10.1448
▁Egypt	-10.1454
▁acid	-10.1459
▁attention	-10.1467
ram	-10.1483
▁pressure	-10.1485
▁Ukrainian	-10.149
0000	-10.1491
▁adult	-10.1494
▁travel	-10.1495
▁Human	-10.1505
▁agency	-10.1506
▁Howard	-10.1512
▁account	-10.1513
▁Samuel	-10.1516
▁Ki	-10.1523
▁Memorial	-10.1525
su	-10.1526
ok	-10.1526
▁Ford	-10.1531
▁likely	-10.1533
▁forced	-10.1536
▁Sal	-10.1539
▁relatively	-10.1548
▁animals	-10.1548
▁0-00	-10.1551
▁lit	-10.1551
▁poetry	-10.1554
▁super	-10.1555
▁supporting	-10.1556
▁cancer	-10.156
▁Mr	-10.1565
▁Engineering	-10.1569
▁Dublin	-10.1569
▁hold	-10.1578
▁Imperial	-10.1582
▁scholar	-10.1583
▁programme	-10.1584
▁electoral	-10.1585
▁Romanian	-10.1587
▁institutions	-10.1589
▁translated	-10.1591
▁teaching	-10.1596
р	-10.1597
▁approach	-10.1608
ud	-10.1609
▁driver	-10.1611
▁face	-10.1615
▁object	-10.1616
▁(0.00	-10.1616
▁Oklahoma	-10.1618
▁decades	-10.1618
▁Bel	-10.1623
▁Cal	-10.1623
▁brown	-10.1633
▁Forces	-10.1634
▁parties	-10.1638
▁Camp	-10.1645
▁assigned	-10.1646
with	-10.1646
▁farm	-10.1651
▁motor	-10.1653
▁ˈ	-10.1661
▁commander	-10.1663
▁reign	-10.1672
н	-10.1673
▁Regiment	-10.1675
▁medium	-10.1675
▁Ross	-10.168
ai	-10.1685
▁Studies	-10.1689
▁notably	-10.169
▁whether	-10.169
▁device	-10.1694
án	-10.17
▁image	-10.1703
Greek	-10.1707
▁port	-10.1714
ris	-10.1718
▁Islamic	-10.1721
▁Puerto	-10.1724
▁acts	-10.1726
▁Dar	-10.1729
▁already	-10.1734
▁Kent	-10.1735
tus	-10.174
▁Senior	-10.1744
▁entry	-10.1745
▁Communist	-10.1745
▁Foreign	-10.1755
▁Bad	-10.1762
▁camp	-10.1762
▁potential	-10.1772
cy	-10.1775
▁volume	-10.1775
▁cars	-10.1775
▁Modern	-10.1778
▁Play	-10.1779
ix	-10.1782
▁hip	-10.1782
▁declared	-10.1783
▁leadership	-10.1784
port	-10.1786
"),	-10.1791
▁See	-10.1797
▁provincial	-10.18
▁des	-10.1802
tin	-10.1802
▁debuted	-10.1807
▁contributions	-10.1811
▁daily	-10.1813
▁Lanka	-10.1819
▁Ukraine	-10.1823
▁bi	-10.1826
▁Ju	-10.1828
▁News	-10.183
yo	-10.1832
▁positions	-10.1834
▁Final	-10.1838
▁Age	-10.1845
▁Bur	-10.1852
▁Mad	-10.1858
▁affiliated	-10.1861
US	-10.1865
▁Square	-10.1865
▁distinct	-10.1869
▁offered	-10.1871
▁Family	-10.1879
ning	-10.1881
▁ability	-10.1885
▁Ad	-10.1892
▁Douglas	-10.1897
▁towns	-10.1902
▁methods	-10.1907
▁Ed	-10.1913
▁counties	-10.1913
▁Independent	-10.1914
▁give	-10.1915
▁defending	-10.1929
▁Cricket	-10.1937
▁Col	-10.1945
▁younger	-10.1951
central	-10.1952
▁starred	-10.1953
▁call	-10.1956
▁royal	-10.1957
▁Frederick	-10.1964
▁Hamilton	-10.1964
▁bass	-10.1965
▁Stone	-10.1965
▁reaching	-10.197
gu	-10.1972
wan	-10.1973
▁Cor	-10.198
▁stated	-10.1982
▁Military	-10.1987
▁islands	-10.2
▁existence	-10.2001
▁Main	-10.2004
▁Will	-10.2004
▁Bal	-10.2009
cho	-10.201
▁classified	-10.2012
▁wood	-10.2014
ō	-10.2017
iya	-10.202
▁establishment	-10.202
▁influential	-10.2025
▁extensive	-10.2025
▁et	-10.203
▁horse	-10.2037
▁adapted	-10.2037
▁therefore	-10.2049
▁Connecticut	-10.2059
▁amount	-10.207
ria	-10.2071
▁promotion	-10.2074
▁meeting	-10.208
▁growing	-10.2081
▁Patrick	-10.2086
▁resulting	-10.2087
▁finish	-10.2089
▁Brian	-10.2101
▁pay	-10.2103
▁focused	-10.2104
▁Cu	-10.2111
▁Due	-10.2127
▁Ram	-10.213
▁stand	-10.213
▁vehicles	-10.2132
▁hotel	-10.2136
▁month	-10.2139
▁Sound	-10.214
▁continues	-10.2144
▁Louisiana	-10.2144
over	-10.2151
▁partner	-10.2153
ão	-10.2155
▁Athletic	-10.2156
▁habitat	-10.2157
▁Pra	-10.2159
▁subsidiary	-10.2161
▁bird	-10.2161
aceae	-10.2164
▁medicine	-10.2165
▁Serbian	-10.2169
▁Grade	-10.2172
tel	-10.2175
▁Allen	-10.2178
▁contested	-10.2182
▁Internet	-10.2183
▁gastropod	-10.2186
▁Bangladesh	-10.2187
which	-10.2188
ane	-10.219
▁Rio	-10.2191
ong	-10.2192
▁Another	-10.2196
▁specifically	-10.2197
▁get	-10.2198
▁except	-10.2201
▁greatest	-10.2202
▁CEO	-10.2209
▁spoken	-10.2211
▁traffic	-10.2214
▁subsequent	-10.2219
▁bus	-10.2223
▁problem	-10.2223
▁passenger	-10.2226
san	-10.2227
▁Portugal	-10.2227
▁drug	-10.2229
▁flowers	-10.2229
▁Tony	-10.2233
▁Ban	-10.2236
▁Executive	-10.2238
▁me	-10.2245
▁knowledge	-10.2246
▁manufactured	-10.225
▁fashion	-10.2258
?	-10.2261
▁soccer	-10.2269
net	-10.2271
March	-10.2276
▁flowering	-10.2276
▁Thailand	-10.2278
MP	-10.2282
▁conflict	-10.2285
▁headquartered	-10.2287
▁Hal	-10.2287
▁find	-10.229
ists	-10.2292
▁scene	-10.2293
▁Boy	-10.2296
▁environmental	-10.2298
▁Management	-10.2299
▁Gi	-10.2301
▁Mor	-10.2303
▁successor	-10.2313
▁drummer	-10.2314
▁impact	-10.232
▁animal	-10.2327
ure	-10.2329
story	-10.233
▁eighth	-10.2336
▁Bor	-10.2337
▁Trust	-10.2339
▁true	-10.2343
▁removed	-10.2349
▁Marine	-10.2352
▁Class	-10.2356
level	-10.2358
▁deep	-10.236
▁Juan	-10.2363
bit	-10.2366
dal	-10.2369
art	-10.2369
▁Pop	-10.2372
▁might	-10.2374
ice	-10.2375
▁turned	-10.2379
dale	-10.2382
▁Ottoman	-10.2387
▁Reserve	-10.2387
ise	-10.2394
▁amateur	-10.2396
▁rapper	-10.2401
▁performing	-10.2404
▁vocalist	-10.2408
▁Arabic	-10.2415
▁Way	-10.2419
ala	-10.2422
len	-10.2431
▁exist	-10.2435
election	-10.244
▁Tournament	-10.2456
▁birth	-10.2456
▁library	-10.2463
burg	-10.2469
▁institution	-10.2469
▁00.000°	-10.2471
▁captured	-10.2471
▁Sunday	-10.2473
▁Anna	-10.2474
water	-10.2474
▁Guinea	-10.2477
ries	-10.248
▁friend	-10.2482
English	-10.2485
▁Ja	-10.2502
▁defeating	-10.2505
▁Upper	-10.2512
▁AD	-10.2513
▁longest	-10.2514
tan	-10.2515
▁mentioned	-10.2521
▁Hungary	-10.2522
▁Ch	-10.2529
▁efforts	-10.2529
▁buried	-10.2529
▁Clark	-10.2529
▁presence	-10.2534
▁Ci	-10.254
▁Pu	-10.2544
▁promote	-10.2547
▁manga	-10.2548
▁Yorkshire	-10.2549
▁reality	-10.2553
▁incorporated	-10.2553
▁José	-10.2555
▁shape	-10.2557
oma	-10.2559
▁spring	-10.2562
▁focuses	-10.2564
▁Mc	-10.2565
▁Za	-10.257
my	-10.257
▁graduate	-10.2586
▁describes	-10.2586
▁mobile	-10.2593
▁lack	-10.2595
dar	-10.2602
▁resulted	-10.2602
▁Sh	-10.2603
▁floor	-10.2611
▁spread	-10.2616
▁trains	-10.262
▁philosophy	-10.2623
ken	-10.2636
▁Dam	-10.2637
▁Greater	-10.2644
▁o	-10.2649
▁murder	-10.2652
▁tall	-10.2654
law	-10.2657
▁exchange	-10.2658
oc	-10.2659
▁nuclear	-10.2667
mp	-10.267
▁votes	-10.2678
▁Bu	-10.2695
▁Miller	-10.2701
▁And	-10.2702
nt	-10.2702
▁Montreal	-10.2705
▁Deputy	-10.2708
▁earliest	-10.2708
▁leaders	-10.2713
▁develop	-10.2714
▁Heart	-10.2717
▁table	-10.2717
▁recognition	-10.2726
ero	-10.2731
illa	-10.2736
tro	-10.2741
▁occur	-10.2743
▁Mel	-10.2747
▁going	-10.2751
▁Prefecture	-10.2757
▁Alan	-10.2758
▁weight	-10.2761
▁poor	-10.2763
▁ethnic	-10.2766
▁Founded	-10.2771
▁se	-10.2776
▁display	-10.2776
Re	-10.2778
ay	-10.2788
▁prize	-10.2788
▁hits	-10.2789
▁shared	-10.2791
▁Light	-10.2792
▁compared	-10.28
▁genre	-10.2803
▁stores	-10.2805
▁IV	-10.2814
▁Tor	-10.2819
ble	-10.282
▁Pat	-10.2835
▁Eric	-10.2839
▁Peru	-10.2841
▁greater	-10.2842
▁flat	-10.2849
▁Dean	-10.2851
▁workers	-10.2853
▁#00	-10.2855
▁simple	-10.2857
▁despite	-10.2864
▁Because	-10.2874
var	-10.2877
▁Mill	-10.2878
▁influenced	-10.2885
▁trees	-10.2895
▁protection	-10.2899
▁scale	-10.2901
▁Nazi	-10.2902
▁Lincoln	-10.2905
▁Hampshire	-10.2906
▁aged	-10.291
▁technical	-10.2912
▁Para	-10.2915
▁destroyed	-10.2916
▁castle	-10.2918
▁annually	-10.2922
▁build	-10.2927
▁secretary	-10.2936
▁ending	-10.2937
▁twelve	-10.2937
tis	-10.2939
▁Ab	-10.295
▁Pictures	-10.295
▁classic	-10.2954
▁troops	-10.2955
▁musicians	-10.2955
part	-10.296
▁Adam	-10.2966
air	-10.2966
▁housing	-10.2969
▁edge	-10.2972
▁Mayor	-10.2972
▁machine	-10.2973
▁Nigeria	-10.2975
▁fully	-10.2978
▁Miami	-10.2979
▁tri	-10.2981
▁Tim	-10.299
▁forests	-10.2994
▁stock	-10.3
▁resigned	-10.3003
▁creating	-10.3003
▁Utah	-10.3007
▁stop	-10.3017
ada	-10.3018
▁kg	-10.3018
▁follow	-10.303
▁Between	-10.3034
▁Ro	-10.304
▁competitions	-10.3041
▁obtained	-10.3045
ae	-10.3049
▁idea	-10.3052
▁Maine	-10.3052
▁broad	-10.3053
▁covering	-10.3055
▁Max	-10.3055
▁plot	-10.3058
▁Karl	-10.3062
▁report	-10.3063
▁core	-10.3063
▁ABC	-10.3066
ub	-10.3068
▁Security	-10.3083
▁devices	-10.3084
cher	-10.3085
▁condition	-10.3088
▁Ru	-10.3088
from	-10.3091
▁Romania	-10.3092
▁coastal	-10.3102
kh	-10.3105
update	-10.3105
▁permanent	-10.3105
▁Hi	-10.3106
▁adaptation	-10.3109
▁finally	-10.311
▁Albums	-10.3131
▁Nova	-10.3132
0,	-10.3138
▁equivalent	-10.3141
▁scheduled	-10.3147
▁converted	-10.3148
▁holding	-10.3149
mm	-10.3151
lon	-10.3156
▁foundation	-10.3158
▁publisher	-10.3159
▁Houston	-10.3159
▁chosen	-10.3159
▁weekly	-10.316
▁DJ	-10.3162
▁hall	-10.3174
tar	-10.3175
▁00.00000	-10.3175
▁priest	-10.3176
▁sense	-10.3178
▁technique	-10.318
▁Mon	-10.3194
▁runner	-10.3194
▁Nepal	-10.3196
▁Orchestra	-10.3196
▁mine	-10.3197
▁Services	-10.3198
▁publishing	-10.32
▁Disney	-10.3201
▁learning	-10.3202
▁Marie	-10.3204
▁crew	-10.321
▁trial	-10.3211
▁flow	-10.3215
▁heritage	-10.3215
ston	-10.3221
▁sexual	-10.3231
uri	-10.3241
ens	-10.3241
▁existing	-10.3243
▁yet	-10.3247
▁Youth	-10.3253
▁Gor	-10.3256
▁sequel	-10.3263
▁resources	-10.3264
▁memory	-10.3266
▁Christopher	-10.3272
ren	-10.3274
▁Railroad	-10.3281
▁Microsoft	-10.3283
May	-10.3285
ette	-10.3285
▁plans	-10.3285
▁Dakota	-10.3286
pp	-10.3287
▁classes	-10.3287
▁maximum	-10.3289
▁fruit	-10.3291
▁Test	-10.3294
▁composition	-10.3296
▁Several	-10.3298
ett	-10.3298
▁ca	-10.3301
▁Down	-10.3304
▁anime	-10.3309
ping	-10.3312
▁newly	-10.3316
▁internationally	-10.3317
▁Limited	-10.3318
▁Diego	-10.3318
▁developing	-10.3324
▁remain	-10.3325
▁scientist	-10.3328
▁Not	-10.333
▁independence	-10.3335
▁producing	-10.3337
▁Your	-10.3339
▁Lawrence	-10.3341
▁letter	-10.3342
▁Ga	-10.3349
▁contributed	-10.3349
▁expansion	-10.3349
▁dates	-10.3357
▁basic	-10.3357
▁Christmas	-10.3361
▁Che	-10.3367
▁But	-10.3369
▁Iranian	-10.337
▁Commons	-10.3377
ova	-10.338
▁registered	-10.338
▁PC	-10.3386
▁parents	-10.3387
▁contain	-10.3389
▁Nu	-10.3391
ee	-10.3393
tha	-10.3398
▁Antonio	-10.34
▁Ham	-10.3403
▁Ann	-10.3404
▁subfamily	-10.3407
▁Peninsula	-10.3407
▁soundtrack	-10.3411
▁ceremony	-10.3413
ns	-10.3414
▁0000[	-10.3421
▁Taiwan	-10.3427
abad	-10.3431
▁Iron	-10.3437
▁Sch	-10.3439
▁contained	-10.3443
▁piece	-10.3444
▁employed	-10.345
▁Hotel	-10.3459
res	-10.3462
▁Shi	-10.3463
▁Chairman	-10.3465
▁reduced	-10.3469
▁Fu	-10.3476
▁Real	-10.3479
ability	-10.3486
▁brothers	-10.3494
De	-10.3497
▁romantic	-10.3498
▁Trade	-10.3501
▁Silver	-10.3505
▁Hills	-10.351
▁entirely	-10.3513
▁briefly	-10.352
▁#0	-10.3538
▁Cleveland	-10.3544
▁corner	-10.3552
▁Egyptian	-10.3552
▁tributary	-10.3552
▁silent	-10.3552
ize	-10.3554
▁Jesus	-10.3557
▁defeat	-10.356
▁Lieutenant	-10.3565
▁junior	-10.3567
▁Muslim	-10.3568
▁lists	-10.3569
▁Las	-10.3569
▁winter	-10.357
▁Chile	-10.3577
▁pair	-10.358
▁Tan	-10.3586
▁Anderson	-10.3592
sson	-10.3598
ities	-10.3599
▁Serbia	-10.36
▁combat	-10.3602
▁deal	-10.3607
▁describe	-10.3611
lar	-10.3611
▁effective	-10.3613
▁break	-10.3619
▁kind	-10.363
▁biggest	-10.3635
▁economy	-10.3636
▁assembly	-10.364
▁Gu	-10.3643
▁deputy	-10.365
▁Detroit	-10.3657
▁iron	-10.367
ona	-10.3672
▁Program	-10.3673
▁pilot	-10.3682
▁normal	-10.3688
▁maintained	-10.3688
light	-10.369
ə	-10.3691
▁existed	-10.3696
▁committee	-10.3702
▁Sol	-10.3707
▁continue	-10.3707
▁stream	-10.3707
tion	-10.3707
wi	-10.3713
▁collaboration	-10.3713
▁bands	-10.3721
gon	-10.3724
▁Oblast	-10.3728
▁sign	-10.3728
lis	-10.373
▁transfer	-10.3738
▁gun	-10.3746
▁Global	-10.3749
▁Moore	-10.375
rin	-10.3753
▁winners	-10.3758
▁Athletics	-10.3764
▁powerful	-10.3765
▁Moon	-10.3769
▁ninth	-10.3769
ther	-10.377
▁techniques	-10.3771
▁reserve	-10.3771
▁Gordon	-10.3777
▁perform	-10.3779
▁room	-10.3781
board	-10.3781
▁Children	-10.3783
▁educator	-10.3796
▁compiled	-10.3797
▁fantasy	-10.3798
▁Hollywood	-10.3799
nia	-10.38
▁Shah	-10.381
iz	-10.3812
▁collected	-10.3814
▁novelist	-10.3819
▁Front	-10.382
▁physician	-10.382
▁0-0,	-10.3821
▁cinema	-10.3821
low	-10.3822
▁broadcasting	-10.3823
ban	-10.383
0.	-10.3831
▁roughly	-10.3832
izing	-10.3838
▁0000-0000,	-10.384
▁elevation	-10.3842
▁hill	-10.3849
▁diplomat	-10.3851
lic	-10.3852
dan	-10.3853
▁settled	-10.3855
▁my	-10.3857
й	-10.3862
▁Magazine	-10.3862
▁critic	-10.3863
ene	-10.3866
August	-10.3869
if	-10.3871
▁granted	-10.3877
ase	-10.3878
▁equal	-10.3878
▁objects	-10.3879
▁steel	-10.388
▁tribe	-10.3881
▁calendar	-10.3883
▁Harvard	-10.3883
▁Il	-10.3887
▁Captain	-10.3888
▁sex	-10.3889
▁races	-10.3891
▁naval	-10.3892
▁Agency	-10.3893
▁competing	-10.3903
▁meters	-10.3903
king	-10.3907
wing	-10.3907
▁losing	-10.391
▁giving	-10.391
nan	-10.391
▁Diocese	-10.3912
▁recordings	-10.3912
▁municipalities	-10.3915
▁Fair	-10.3917
ky	-10.3919
▁Trophy	-10.392
▁damage	-10.3922
▁criminal	-10.3927
▁colonial	-10.393
▁formal	-10.3931
▁certified	-10.3935
ep	-10.3939
ika	-10.3939
▁internal	-10.3941
▁Grammy	-10.3941
▁receive	-10.3949
▁Alberta	-10.3951
▁Gulf	-10.3957
▁advanced	-10.3958
▁temperature	-10.3962
▁Arkansas	-10.3964
▁flag	-10.3969
▁parallel	-10.3973
▁reasons	-10.3974
▁motion	-10.3976
▁users	-10.3978
▁Margaret	-10.3979
▁rose	-10.3989
din	-10.3992
▁translation	-10.3995
▁Wall	-10.4002
▁fast	-10.4004
̃	-10.4005
▁standards	-10.4009
▁classification	-10.4012
▁Garden	-10.4012
▁accepted	-10.4013
▁finishing	-10.402
▁risk	-10.4027
ator	-10.4027
▁signal	-10.4028
▁micro	-10.4032
▁Pope	-10.4035
▁Atlanta	-10.404
ide	-10.4042
▁shortly	-10.4042
▁‘	-10.4045
▁stands	-10.4046
▁narrow	-10.4047
▁safety	-10.4047
▁combination	-10.4047
▁Senator	-10.4047
ska	-10.405
jan	-10.4057
oni	-10.4061
▁setting	-10.4064
▁opposition	-10.4064
ira	-10.4068
▁officers	-10.4068
▁entrepreneur	-10.4072
▁card	-10.4077
▁brick	-10.4081
▁ruled	-10.4082
▁Colombia	-10.4086
▁qualified	-10.4092
▁Cathedral	-10.4094
▁ring	-10.4097
▁authorities	-10.4098
▁prevent	-10.4101
▁Croatian	-10.4102
▁Mer	-10.4104
▁Ex	-10.4104
ile	-10.4107
ip	-10.4111
▁religion	-10.4117
▁wine	-10.4124
▁Anti	-10.4131
▁Kan	-10.4132
▁Sub	-10.4133
▁hosts	-10.4141
▁Kal	-10.4143
▁manufacturing	-10.4145
▁athlete	-10.4146
ese	-10.4148
▁solid	-10.4151
▁Singh	-10.4157
▁Administration	-10.4159
▁agricultural	-10.4162
▁architectural	-10.4174
▁Borough	-10.4174
▁Jordan	-10.4179
▁Del	-10.4181
hill	-10.4181
January	-10.4183
▁parliament	-10.4188
September	-10.4192
▁pieces	-10.4194
▁Comics	-10.4198
née	-10.4208
pan	-10.4212
▁Natural	-10.4213
▁user	-10.4213
▁Design	-10.4215
▁Wa	-10.4215
▁Local	-10.4219
▁DC	-10.4223
▁Early	-10.4224
▁entitled	-10.4225
▁opposed	-10.4226
▁entertainment	-10.4228
▁beyond	-10.4231
April	-10.4231
▁spin	-10.4234
including	-10.4234
▁Norman	-10.4236
▁Arena	-10.4237
▁meet	-10.4238
▁der	-10.4243
▁roof	-10.4245
sur	-10.4246
bra	-10.4249
▁compound	-10.4255
▁improve	-10.4257
▁slightly	-10.4262
▁soldier	-10.4264
istic	-10.4266
not	-10.4267
▁belongs	-10.4274
stone	-10.4275
▁Formula	-10.428
▁disc	-10.4282
▁sides	-10.4286
▁Alfred	-10.4289
▁Hans	-10.4291
▁000-	-10.4294
July	-10.4296
▁cabinet	-10.4304
▁Austin	-10.4304
▁got	-10.4305
▁pass	-10.4322
October	-10.4325
▁Guard	-10.4326
▁voted	-10.4329
▁wall	-10.4331
▁downtown	-10.4332
▁big	-10.4332
▁Baltimore	-10.4335
▁Pittsburgh	-10.4336
▁join	-10.4339
can	-10.4343
▁Pen	-10.4344
▁tax	-10.4345
style	-10.4347
December	-10.435
▁borders	-10.435
▁occupied	-10.4354
▁purposes	-10.4357
▁possibly	-10.4357
▁appearing	-10.4357
▁sequence	-10.4363
▁snail	-10.4367
▁kilometers	-10.437
▁launch	-10.4385
▁cycle	-10.4386
▁Persian	-10.4387
nie	-10.4389
▁processes	-10.4391
▁Back	-10.4396
▁spot	-10.4397
▁Medicine	-10.4398
▁churches	-10.44
▁Dun	-10.4402
nu	-10.4406
▁enough	-10.4409
▁communication	-10.4413
▁bodies	-10.4415
▁distinguished	-10.4416
▁contest	-10.4417
▁Birmingham	-10.4422
▁Palace	-10.4422
▁universities	-10.4428
▁Naval	-10.4428
▁Matt	-10.4429
▁Ve	-10.443
pro	-10.4431
▁rise	-10.4431
▁Broadway	-10.4432
▁formula	-10.4438
▁000.0	-10.4438
▁popularity	-10.4439
▁Grant	-10.444
▁Jay	-10.4446
▁agreement	-10.445
ɪ	-10.4457
ei	-10.4459
▁Five	-10.446
▁Alliance	-10.4461
▁boundary	-10.4462
▁Ron	-10.4464
▁township	-10.4465
▁Mat	-10.4468
val	-10.447
▁boat	-10.4475
▁Part	-10.4476
▁page	-10.4481
▁Brothers	-10.4483
▁Vienna	-10.4483
▁audience	-10.4491
aka	-10.4491
▁Cat	-10.4496
rat	-10.4498
▁Command	-10.4504
▁screenwriter	-10.4505
▁sets	-10.4505
▁Crown	-10.4514
▁search	-10.4518
▁Organization	-10.452
▁Mid	-10.4523
▁Dance	-10.4524
▁Va	-10.4531
").	-10.4534
shaped	-10.4538
▁dry	-10.4542
▁press	-10.4544
▁heavily	-10.4545
▁decade	-10.4545
▁actually	-10.455
▁Bureau	-10.4555
▁soldiers	-10.4557
▁piano	-10.4558
▁recipient	-10.456
▁Franklin	-10.4563
▁Girl	-10.4569
▁Costa	-10.4581
▁dating	-10.4582
▁Doctor	-10.4583
▁Songs	-10.4584
▁coming	-10.4587
nik	-10.4587
▁Tower	-10.4591
▁HMS	-10.4592
iv	-10.4596
ins	-10.4598
mb	-10.4601
▁Champion	-10.4609
ever	-10.4612
eri	-10.4613
▁completely	-10.4616
▁quickly	-10.4618
▁zone	-10.4623
gun	-10.4623
▁championships	-10.4625
▁Only	-10.4628
▁immediately	-10.4632
▁Movement	-10.4632
▁citizens	-10.464
▁Zone	-10.4642
acre	-10.4643
▁pioneer	-10.4644
mat	-10.4644
▁theater	-10.4648
▁Orthodox	-10.4649
▁Capital	-10.4649
▁Sand	-10.4651
ible	-10.4653
▁peace	-10.4653
ān	-10.4656
▁AM	-10.4659
ric	-10.466
her	-10.466
▁southwestern	-10.4663
▁comprises	-10.4672
▁photographer	-10.4675
▁Convention	-10.4676
ery	-10.4683
▁Glen	-10.469
▁protected	-10.4692
▁physics	-10.4692
▁Shu	-10.4692
▁Morgan	-10.4693
▁Mont	-10.4694
▁drive	-10.4705
Al	-10.4707
▁trained	-10.471
▁context	-10.4713
▁restaurant	-10.4715
▁Plan	-10.4716
▁Third	-10.4716
▁publications	-10.4722
▁Yo	-10.4723
▁contrast	-10.4725
▁supply	-10.4726
▁poem	-10.4729
▁Phil	-10.4729
▁artistic	-10.4731
▁pianist	-10.4732
▁Place	-10.4735
▁component	-10.4737
▁interior	-10.4742
▁serial	-10.4744
▁glass	-10.4744
▁Cemetery	-10.4745
▁paintings	-10.4748
▁audio	-10.4751
▁produces	-10.4757
▁girl	-10.4763
▁residence	-10.4763
ington	-10.4776
bury	-10.4783
▁receiving	-10.4784
▁phase	-10.4785
▁laws	-10.4786
▁components	-10.4787
▁Who	-10.4796
▁Count	-10.4798
▁Donald	-10.4802
▁branches	-10.4803
▁expected	-10.4803
ph	-10.4805
▁Vol	-10.4806
▁effort	-10.4809
▁domain	-10.481
▁prime	-10.4812
ü	-10.4815
▁eye	-10.4816
fish	-10.4837
▁mill	-10.4843
▁Son	-10.4844
▁identity	-10.485
▁0:00	-10.4851
▁experimental	-10.4852
▁Socialist	-10.4854
mu	-10.4854
▁NBA	-10.4856
▁attorney	-10.4859
star	-10.486
▁designs	-10.4863
June	-10.4863
▁Dave	-10.4865
à	-10.4866
▁Brooklyn	-10.4869
▁edited	-10.4869
▁Hindi	-10.4871
pin	-10.4872
▁spelled	-10.4872
eastern	-10.4873
▁Now	-10.4878
ag	-10.4884
▁satellite	-10.4884
osa	-10.4884
▁Jacob	-10.4889
oli	-10.489
▁failure	-10.4892
▁Ball	-10.4894
▁joining	-10.4895
ros	-10.4895
▁claims	-10.4897
SA	-10.4899
▁Jane	-10.4903
▁Iraq	-10.4904
▁reform	-10.4909
▁percent	-10.491
▁Sur	-10.4913
ding	-10.4915
▁difficult	-10.4917
▁Les	-10.4918
▁chair	-10.492
▁Bruce	-10.4921
▁investment	-10.4923
▁le	-10.4927
zer	-10.4931
▁selection	-10.4942
т	-10.4942
▁determine	-10.4947
▁fuel	-10.495
western	-10.4951
Italian	-10.4962
▁Russell	-10.4962
▁romanized	-10.4965
such	-10.4975
▁Trans	-10.4975
▁Roy	-10.4977
▁sons	-10.4978
▁allowing	-10.4981
▁Productions	-10.4982
▁descent	-10.4985
▁Matthew	-10.4985
▁metropolitan	-10.4988
▁selling	-10.4988
▁typical	-10.4988
▁connection	-10.4989
▁nomination	-10.4992
▁clear	-10.4998
Le	-10.5002
February	-10.5006
▁planning	-10.5008
lia	-10.5009
▁originated	-10.5013
▁formally	-10.5014
▁Ur	-10.5025
▁Parish	-10.5029
▁wave	-10.5036
▁Min	-10.5037
▁Fellow	-10.5038
▁Draft	-10.504
▁Philippine	-10.5046
▁defense	-10.5047
▁comedian	-10.505
▁Nelson	-10.5057
▁Alaska	-10.506
▁00.0%	-10.506
▁FA	-10.5061
▁mining	-10.5064
▁draft	-10.5066
del	-10.5066
ball	-10.5069
▁importance	-10.5069
▁measure	-10.5072
▁controlled	-10.5079
▁Though	-10.5086
▁Beijing	-10.5091
▁bought	-10.5092
▁Dis	-10.5097
▁price	-10.5101
▁Seattle	-10.5102
▁Saturday	-10.5104
▁CBS	-10.5104
▁hop	-10.5104
▁Nevada	-10.5105
▁defensive	-10.5109
▁southeastern	-10.5112
▁instruments	-10.5114
▁Walker	-10.5115
▁wind	-10.5117
▁climate	-10.512
▁NBC	-10.512
▁venue	-10.5124
founder	-10.5127
▁Opera	-10.5127
▁ordered	-10.5127
▁Roger	-10.5127
▁courts	-10.5127
▁Information	-10.513
ped	-10.5131
▁degrees	-10.5132
▁Unlike	-10.5133
▁Liverpool	-10.5135
к	-10.5135
▁00:00	-10.5137
ua	-10.5153
▁Kon	-10.5161
▁Caribbean	-10.517
▁fine	-10.5178
gate	-10.5179
▁northeastern	-10.5181
set	-10.5183
▁too	-10.5183
▁fell	-10.5186
▁circuit	-10.5187
▁fighting	-10.5192
▁Fred	-10.5196
hara	-10.5197
mus	-10.5197
▁Ice	-10.5199
Serbian	-10.52
▁claim	-10.5205
▁surviving	-10.5217
▁operate	-10.5219
cu	-10.522
è	-10.5221
▁birds	-10.5224
▁FIFA	-10.5227
▁PlayStation	-10.5227
▁Kerala	-10.5228
▁instrument	-10.5235
ي	-10.524
▁specialized	-10.5242
November	-10.5244
▁Pierre	-10.5251
foot	-10.5264
▁Rico	-10.5268
mile	-10.5269
▁writers	-10.5269
des	-10.5273
▁letters	-10.5275
▁Labor	-10.5275
▁cyclist	-10.5278
▁confirmed	-10.5279
▁Harris	-10.5279
▁introduction	-10.528
▁Lang	-10.5285
▁employees	-10.5286
down	-10.5289
Ha	-10.5292
▁mouth	-10.5293
š	-10.5298
▁Ak	-10.53
▁Constitution	-10.5305
▁Rob	-10.531
▁interests	-10.5311
▁Territory	-10.5314
▁gives	-10.5323
▁Ger	-10.5324
▁instrumental	-10.5326
pre	-10.5327
▁involving	-10.5327
▁Richmond	-10.5331
▁Wild	-10.5331
▁retail	-10.5335
▁Mas	-10.5337
length	-10.5337
▁Princess	-10.5339
▁Victor	-10.5339
ative	-10.5339
▁Var	-10.534
▁Stewart	-10.5341
▁horror	-10.5347
ū	-10.5358
▁Kenya	-10.5359
▁Ash	-10.5364
▁Je	-10.5365
▁liquid	-10.5369
▁feed	-10.5369
ela	-10.537
_{	-10.538
▁actions	-10.5381
▁abandoned	-10.5382
tre	-10.5395
▁Eu	-10.5396
▁Story	-10.5402
▁Vancouver	-10.5408
▁factor	-10.541
▁Soccer	-10.5415
▁squad	-10.5416
ă	-10.5417
type	-10.542
▁Farm	-10.5426
▁Campbell	-10.5428
▁cup	-10.5429
▁membership	-10.5434
▁markets	-10.5436
▁Warner	-10.5437
elle	-10.5446
▁Mag	-10.5446
▁Run	-10.5448
ele	-10.545
▁protect	-10.5451
▁storage	-10.5452
▁Native	-10.5452
▁aspects	-10.5452
▁eleven	-10.5453
▁sector	-10.5455
▁invasion	-10.5455
▁Liga	-10.5457
▁00000	-10.546
▁examples	-10.5467
▁extra	-10.5469
▁widespread	-10.5469
▁Judge	-10.5469
▁Sen	-10.5475
▁Bulgarian	-10.5476
▁Review	-10.548
az	-10.548
▁regularly	-10.5485
FM	-10.5491
▁00.000	-10.5495
▁returning	-10.5496
▁Lane	-10.5498
▁dam	-10.5499
▁nickname	-10.5501
▁friends	-10.5502
▁garden	-10.5506
bert	-10.5507
▁approved	-10.551
▁Apple	-10.5514
▁element	-10.5519
ali	-10.5521
▁straight	-10.5523
▁opposite	-10.5523
term	-10.5529
▁landscape	-10.5548
▁Ji	-10.5553
▁ultimately	-10.5555
▁Cho	-10.5556
▁personality	-10.5558
▁volleyball	-10.5561
▁−	-10.5563
▁Shin	-10.5565
cus	-10.5565
General	-10.5566
aria	-10.5569
▁sections	-10.5575
ama	-10.5577
▁Edinburgh	-10.5578
▁participate	-10.558
non	-10.5582
▁laid	-10.5585
rie	-10.5587
▁ranking	-10.5592
▁Milan	-10.5592
▁skin	-10.5599
▁punk	-10.5602
uf	-10.5605
ö	-10.5609
▁Trail	-10.5612
▁na	-10.5615
▁heat	-10.5617
▁inaugural	-10.5619
▁dead	-10.5627
▁otherwise	-10.5635
yu	-10.5639
▁grade	-10.564
▁offer	-10.5642
cal	-10.5642
▁reaction	-10.5644
▁Nick	-10.5651
▁Des	-10.5654
▁Universal	-10.5658
▁Afghanistan	-10.5661
▁volumes	-10.5663
▁Six	-10.5663
▁Spring	-10.5664
fu	-10.5669
▁Ste	-10.5671
ward	-10.5671
▁;	-10.5672
▁Jon	-10.5677
▁entrance	-10.5678
▁foot	-10.5679
▁Cap	-10.5681
▁Thai	-10.5682
▁Hay	-10.5687
▁justice	-10.5687
▁Authority	-10.5689
▁review	-10.569
▁Virgin	-10.5691
kov	-10.5699
stra	-10.5699
▁Representative	-10.5701
▁background	-10.5706
▁Located	-10.571
▁cable	-10.571
▁intelligence	-10.5712
▁engines	-10.5712
▁Orange	-10.5716
ks	-10.5719
▁Broadcasting	-10.572
д	-10.5721
▁mathematician	-10.5721
▁Bible	-10.5726
▁(/ˈ	-10.5731
▁nations	-10.5733
▁determined	-10.5737
▁Char	-10.574
▁Canal	-10.574
▁fishing	-10.5741
▁Bon	-10.5741
▁r	-10.5742
▁pattern	-10.5744
▁bio	-10.5745
▁competitive	-10.5748
owned	-10.575
▁para	-10.575
▁cannot	-10.5751
olo	-10.5753
▁conductor	-10.5753
▁Boys	-10.5753
▁causes	-10.5756
▁Kevin	-10.5756
▁Ol	-10.5756
▁symbol	-10.5758
▁successfully	-10.5758
ose	-10.5759
▁Energy	-10.5762
▁USS	-10.5762
▁collections	-10.5765
tur	-10.5765
▁banks	-10.5771
▁matter	-10.5777
▁Bre	-10.5778
▁Portland	-10.5791
▁Ana	-10.5791
stein	-10.5793
▁merger	-10.5795
handed	-10.5798
▁suffered	-10.58
▁Azerbaijan	-10.5804
▁Defense	-10.5805
▁Euro	-10.5806
▁arms	-10.5808
sia	-10.5815
▁target	-10.5817
▁traditionally	-10.5818
mont	-10.5818
▁railroad	-10.5819
▁divisions	-10.5825
▁representation	-10.5825
▁replace	-10.5827
▁Infantry	-10.5836
ila	-10.5837
▁Os	-10.5839
▁carry	-10.584
▁scoring	-10.5841
isation	-10.5845
▁mountains	-10.585
▁Falls	-10.5851
▁Album	-10.5855
▁Marshall	-10.5857
▁electrical	-10.5862
top	-10.5863
dom	-10.5865
▁pitcher	-10.5866
▁Industry	-10.5867
▁wins	-10.5868
gue	-10.5868
▁Delhi	-10.5871
▁Alex	-10.5872
▁characterized	-10.5873
ale	-10.5874
Japanese	-10.5875
▁Tai	-10.5877
winning	-10.5877
▁Professional	-10.5882
▁kept	-10.5882
с	-10.5885
▁Hebrew	-10.5885
▁Graham	-10.5886
▁merchant	-10.5891
right	-10.5891
▁coal	-10.5893
▁Nebraska	-10.5896
▁Sabha	-10.5899
enberg	-10.5901
par	-10.5904
▁thriller	-10.5908
▁concluded	-10.5912
▁poly	-10.5913
▁Bengal	-10.5917
▁relative	-10.5917
▁Wayne	-10.5917
▁increasing	-10.5919
dia	-10.592
▁Seven	-10.5929
▁Mur	-10.5929
▁Dor	-10.5939
▁Kelly	-10.5942
▁Dream	-10.5945
▁Benjamin	-10.5945
▁Orleans	-10.5945
▁Dal	-10.5949
lit	-10.5954
▁Stanley	-10.5954
▁designation	-10.5956
▁brain	-10.5957
▁Our	-10.5959
▁negative	-10.5963
▁rivers	-10.5966
▁Ri	-10.597
▁goalkeeper	-10.5971
Co	-10.5973
ret	-10.5973
▁secret	-10.5973
▁Minor	-10.5974
л	-10.5974
▁Southeast	-10.5975
uch	-10.5976
▁extension	-10.5978
▁couple	-10.598
͡	-10.5981
▁Operation	-10.5982
▁documents	-10.5982
▁hundred	-10.5984
▁Carlos	-10.5984
▁processing	-10.5987
▁peer	-10.5991
▁print	-10.5995
▁Ward	-10.5998
bel	-10.6002
▁Hindu	-10.6002
▁categories	-10.6003
▁Culture	-10.6003
▁(00,000	-10.6006
pu	-10.6007
▁beach	-10.6011
▁mark	-10.6013
▁Mediterranean	-10.6013
▁Baronet	-10.6019
▁athletes	-10.6023
▁businesses	-10.6025
▁northwestern	-10.6028
una	-10.6028
▁Ryan	-10.6033
Mo	-10.6035
▁Knight	-10.6036
▁read	-10.6036
▁What	-10.6042
▁singing	-10.6043
▁values	-10.6043
*	-10.6051
▁Chu	-10.6052
qu	-10.6052
▁Peace	-10.6052
▁junction	-10.6053
▁fleet	-10.6055
▁Adams	-10.6057
▁networks	-10.6059
▁historically	-10.6067
point	-10.6069
в	-10.6073
▁budget	-10.6077
▁Cook	-10.6078
▁address	-10.6078
▁Lin	-10.608
▁streets	-10.6082
ert	-10.6084
Hebrew	-10.6087
▁Anglo	-10.6087
od	-10.6095
run	-10.6095
▁brief	-10.6097
ole	-10.6097
▁Dallas	-10.6098
▁scholars	-10.61
▁perhaps	-10.6108
▁Glasgow	-10.6114
▁Dead	-10.6115
▁Armenian	-10.6116
▁script	-10.6118
▁Hart	-10.6119
ora	-10.612
▁grows	-10.6122
zh	-10.6122
▁steam	-10.6123
▁rich	-10.6123
▁contact	-10.6125
▁frequency	-10.6128
▁Die	-10.6129
▁Mission	-10.6133
ava	-10.6134
▁views	-10.6135
▁Thompson	-10.6136
▁broke	-10.6136
▁te	-10.6136
▁quarter	-10.6137
▁outdoor	-10.6141
▁trans	-10.6143
▁nominations	-10.6143
▁stood	-10.6143
▁behavior	-10.6144
▁ball	-10.6147
▁reports	-10.6147
▁link	-10.6149
▁Ag	-10.615
▁Sport	-10.6151
▁Hor	-10.6152
▁Fund	-10.6157
ić	-10.6161
▁income	-10.6162
ón	-10.6165
▁Fi	-10.6167
▁honour	-10.6169
▁fans	-10.6174
elli	-10.6184
Ma	-10.6185
▁regiment	-10.6189
▁celebrated	-10.6192
▁Der	-10.6193
▁parliamentary	-10.6194
ue	-10.6195
▁shopping	-10.6198
▁rear	-10.6206
▁Indonesian	-10.6209
▁Luis	-10.621
▁Books	-10.6217
▁SS	-10.6218
▁candidates	-10.6223
▁chose	-10.6223
▁vessel	-10.6224
ima	-10.6225
▁Kin	-10.623
▁Murray	-10.6231
▁mollusk	-10.6232
ل	-10.6233
aga	-10.6237
▁resistance	-10.6238
band	-10.6242
▁confused	-10.6246
▁mile	-10.6246
▁fight	-10.6248
▁Last	-10.6256
▁fan	-10.6259
shan	-10.6259
ɡ	-10.6264
▁faculty	-10.6264
bus	-10.6267
▁freestyle	-10.6269
worth	-10.6282
▁drafted	-10.6283
▁Late	-10.6286
▁Muhammad	-10.629
▁Bristol	-10.6294
▁personnel	-10.6294
▁Cyrillic	-10.6298
▁Ly	-10.63
▁000-000	-10.6304
▁inducted	-10.6305
▁goods	-10.6307
▁density	-10.6309
▁speech	-10.6311
Korean	-10.6315
▁filmed	-10.6316
▁colour	-10.6317
sta	-10.6318
ré	-10.6319
▁persons	-10.6319
row	-10.632
▁sat	-10.6322
lam	-10.6327
▁arrested	-10.6329
eo	-10.6329
▁Commander	-10.6331
▁Sony	-10.6332
▁Jeff	-10.6334
▁vocal	-10.6336
▁000)	-10.634
▁grand	-10.6341
▁Tur	-10.6341
▁Kings	-10.6342
▁centers	-10.6344
▁partnership	-10.6345
▁Express	-10.6346
▁courses	-10.6352
▁Montana	-10.6354
▁Buddhist	-10.6354
mark	-10.6355
▁Sp	-10.6356
▁screen	-10.6358
▁CE	-10.6359
▁girls	-10.6361
▁picture	-10.6362
▁salt	-10.6362
ves	-10.6363
og	-10.6364
▁fixed	-10.6371
▁details	-10.6377
на	-10.6382
▁frame	-10.6382
▁sale	-10.6384
▁Revival	-10.639
▁Croatia	-10.6393
▁Gro	-10.6394
▁Girls	-10.6396
bridge	-10.6399
▁grey	-10.6399
▁forming	-10.6405
▁thirty	-10.6409
fe	-10.641
▁Athens	-10.6413
ill	-10.6417
▁carbon	-10.6426
▁weather	-10.6431
▁tenth	-10.6433
▁separated	-10.6435
▁Defence	-10.6435
▁ways	-10.6437
▁Common	-10.6441
▁Dark	-10.6444
▁marketing	-10.6445
▁Wrestling	-10.6446
▁Morris	-10.6449
ification	-10.6456
▁Anglican	-10.6457
▁actual	-10.6463
▁counter	-10.6465
▁Monte	-10.6468
▁linked	-10.6471
▁Pri	-10.6474
▁Wu	-10.6476
▁Ce	-10.6479
▁factory	-10.6479
▁paid	-10.6479
ave	-10.648
rus	-10.6483
▁playwright	-10.6488
zy	-10.6489
▁Model	-10.6489
sar	-10.649
▁tier	-10.6492
▁Herbert	-10.6497
▁Bush	-10.6504
SC	-10.6505
▁controversial	-10.6506
av	-10.6507
▁|	-10.6509
ical	-10.6513
ib	-10.6516
▁affected	-10.652
▁attempts	-10.6525
▁exclusively	-10.6525
▁themes	-10.6527
▁wild	-10.6528
▁Wright	-10.6531
▁Rights	-10.6532
▁beat	-10.6534
▁organic	-10.6534
ati	-10.6534
▁Officer	-10.6541
▁expression	-10.6543
gal	-10.6544
arm	-10.6552
▁arrived	-10.6554
▁sand	-10.6554
▁presenter	-10.6554
▁loan	-10.6555
▁Venezuela	-10.6555
▁reduce	-10.6557
▁ratio	-10.6558
▁philosopher	-10.6558
▁sculptor	-10.6559
▁images	-10.656
▁intersection	-10.6567
▁items	-10.6568
▁painted	-10.6568
▁borough	-10.6571
▁Vo	-10.6574
▁soil	-10.6576
ense	-10.6579
▁Win	-10.658
▁Nicholas	-10.6582
▁organised	-10.6583
▁funding	-10.6584
bro	-10.6585
▁our	-10.6585
▁Nigerian	-10.6588
▁Gen	-10.6588
▁Pakistani	-10.6591
mel	-10.6593
▁Are	-10.6595
▁suggested	-10.6599
cia	-10.6601
▁storm	-10.6603
▁camera	-10.6604
▁Delaware	-10.6605
▁Scotia	-10.6605
▁standing	-10.6607
▁Baptist	-10.6611
▁bassist	-10.6612
▁Op	-10.6613
▁Carter	-10.6614
work	-10.6617
▁Currently	-10.6622
▁ma	-10.6625
▁passes	-10.6626
ug	-10.6627
▁passing	-10.6628
▁Madrid	-10.6635
▁Barcelona	-10.6637
▁write	-10.6638
▁injury	-10.6639
▁Site	-10.6641
▁indigenous	-10.6646
▁Short	-10.6648
ato	-10.6649
▁00-0	-10.6654
▁necessary	-10.6654
▁regarding	-10.6656
▁wrestling	-10.6658
▁relay	-10.6661
bach	-10.6661
▁Range	-10.6663
▁contributing	-10.6669
▁Upon	-10.6671
▁Motor	-10.6673
▁map	-10.6673
▁associate	-10.6673
▁00°00′	-10.6677
▁corporate	-10.6677
written	-10.669
▁Robinson	-10.6694
æ	-10.6697
▁premiere	-10.6698
▁Ian	-10.6698
▁Nan	-10.6698
▁Language	-10.6699
▁tools	-10.67
▁z	-10.6702
▁Sierra	-10.6704
▁stages	-10.6706
▁Gary	-10.6711
▁Bernard	-10.6714
pen	-10.6716
fo	-10.672
▁encoded	-10.6722
▁Brigade	-10.6723
▁literally	-10.6724
▁Standard	-10.6724
▁Hy	-10.6728
▁installed	-10.6735
▁walls	-10.6737
▁vessels	-10.6738
▁Gaelic	-10.6745
ori	-10.6745
▁shore	-10.6746
▁Bla	-10.6746
▁parent	-10.6748
▁Ancient	-10.6749
▁Adelaide	-10.675
vis	-10.6757
▁actors	-10.6759
▁Wars	-10.6762
▁Jews	-10.6762
▁boy	-10.6764
▁attacks	-10.677
▁sp	-10.6771
af	-10.6779
▁Democrat	-10.678
▁hands	-10.6782
gy	-10.6783
▁Salt	-10.6785
▁Warren	-10.6788
▁Death	-10.679
▁ski	-10.679
▁survived	-10.6791
nic	-10.6791
released	-10.6791
▁underground	-10.6792
▁executed	-10.6794
▁Bri	-10.6798
▁Ridge	-10.6798
▁definition	-10.6804
ified	-10.6806
▁involves	-10.6806
▁Bulgaria	-10.6807
▁Jazz	-10.6813
▁Nadu	-10.6814
▁funds	-10.6816
▁sponsored	-10.6818
▁armed	-10.682
▁needs	-10.6821
▁Communications	-10.6823
▁leave	-10.6824
▁Ivan	-10.6824
▁Honor	-10.6826
▁Works	-10.6826
▁$00	-10.6828
▁diverse	-10.6831
pt	-10.6836
▁Gallery	-10.6836
och	-10.6838
▁monument	-10.6839
eng	-10.6839
▁Municipal	-10.6842
▁operator	-10.6848
▁Until	-10.6852
▁0000-0000)	-10.6855
▁mall	-10.6862
▁Johnny	-10.687
▁releases	-10.6873
▁Oak	-10.6875
▁Along	-10.6878
▁testing	-10.6878
▁establish	-10.6881
CO	-10.6882
▁sole	-10.6884
yama	-10.6886
▁Champions	-10.6887
▁arm	-10.6888
▁bo	-10.6889
New	-10.6894
▁Billy	-10.6895
▁output	-10.6896
▁Market	-10.6897
▁Hawaii	-10.6898
sis	-10.6898
▁Nar	-10.6903
▁Congo	-10.691
▁Statistical	-10.6914
▁Economic	-10.6914
▁hair	-10.6917
▁drawn	-10.6917
▁occupation	-10.6918
sel	-10.6919
▁biological	-10.6921
▁Kennedy	-10.6922
▁Rad	-10.6922
▁enter	-10.6924
ä	-10.6925
▁Springs	-10.6929
▁Stock	-10.6929
Man	-10.6934
▁Systems	-10.6941
▁Punjab	-10.6942
▁Guy	-10.6943
▁Base	-10.6947
▁styles	-10.6949
▁Wolf	-10.6951
▁occasionally	-10.6951
▁aid	-10.6951
▁Com	-10.6955
▁Jam	-10.6956
▁Den	-10.6957
▁Warsaw	-10.6958
▁achieve	-10.6959
AM	-10.696
ick	-10.6961
ø	-10.6962
qua	-10.6963
▁mythology	-10.6965
▁×	-10.6966
▁Villa	-10.6971
▁videos	-10.6971
▁Ren	-10.6972
▁Islam	-10.6972
▁crossing	-10.6973
▁orchestra	-10.6974
▁job	-10.6975
▁pronounced	-10.6978
▁Cerambycidae	-10.6989
▁engaged	-10.6989
▁locally	-10.7003
▁elect	-10.7012
rum	-10.7013
SS	-10.7014
▁Racing	-10.7016
▁fly	-10.702
▁Nation	-10.7021
▁Angel	-10.7022
я	-10.7024
▁diameter	-10.7028
▁reason	-10.7029
▁surrounded	-10.703
esh	-10.7037
▁Amsterdam	-10.7039
▁Ze	-10.704
▁connects	-10.7041
▁Digital	-10.7042
▁insurance	-10.7046
▁arranged	-10.705
ν	-10.705
form	-10.7051
▁transition	-10.7053
▁Exchange	-10.7056
▁fighter	-10.7058
▁margin	-10.7059
ʁ	-10.7059
▁soft	-10.706
▁portrayed	-10.7062
▁conservation	-10.7067
▁Schools	-10.7067
▁COVID	-10.7068
▁strength	-10.7069
▁terminus	-10.707
▁Commissioner	-10.707
▁attempted	-10.7071
▁leg	-10.7078
▁anniversary	-10.708
listen	-10.7081
▁Charlotte	-10.7083
aw	-10.7084
zu	-10.7086
▁labor	-10.7087
▁Code	-10.7089
aya	-10.7091
▁hot	-10.7095
▁grow	-10.7098
▁screenplay	-10.7108
▁Pass	-10.711
▁rapid	-10.7116
lie	-10.7116
▁DNA	-10.7116
▁predecessor	-10.7116
▁understanding	-10.7118
▁illustrated	-10.7118
ín	-10.7125
▁cap	-10.7126
▁agencies	-10.7128
▁ideas	-10.7128
▁exhibition	-10.7129
▁Gre	-10.7131
▁coached	-10.7134
▁transmission	-10.714
▁Theater	-10.7142
▁Cuba	-10.7142
▁Bru	-10.7143
cur	-10.7143
▁subjects	-10.7144
▁Race	-10.7144
wick	-10.7148
▁Trinity	-10.7148
▁clinical	-10.7148
▁attached	-10.715
ی	-10.7153
▁Mir	-10.7154
▁Kor	-10.7157
▁respect	-10.7157
▁lasted	-10.7157
▁session	-10.7157
▁observed	-10.7162
▁keep	-10.7163
▁Hugh	-10.7172
▁headed	-10.7176
▁maintain	-10.7176
▁patients	-10.7176
rich	-10.7178
▁factors	-10.718
later	-10.7181
▁replacing	-10.7184
▁Sarah	-10.7187
ef	-10.7189
▁Hunter	-10.7196
FA	-10.72
ɑ	-10.72
▁soap	-10.72
▁Studio	-10.7203
▁mean	-10.7203
▁swimmer	-10.7207
▁exists	-10.721
▁freedom	-10.721
?]	-10.7213
▁practices	-10.7213
▁Soul	-10.7218
▁platforms	-10.722
▁Baker	-10.7227
ps	-10.7234
▁Unit	-10.724
▁Tre	-10.7241
▁Jonathan	-10.7241
▁visited	-10.7247
▁Emmy	-10.7247
ovich	-10.7249
▁plus	-10.7249
▁Mitchell	-10.7249
▁professionally	-10.7251
▁Sin	-10.7252
▁Nature	-10.7252
▁integrated	-10.7254
▁file	-10.7258
▁Manhattan	-10.7259
▁affairs	-10.7262
▁Sara	-10.7262
▁measures	-10.7263
▁Tra	-10.7265
▁sought	-10.7274
▁path	-10.7275
▁authors	-10.7276
▁Hol	-10.7279
▁Ghana	-10.7279
▁neighbourhood	-10.7282
▁boundaries	-10.7282
Bo	-10.7284
▁roads	-10.7289
▁wingspan	-10.729
▁Sta	-10.7291
ple	-10.7294
м	-10.7297
agh	-10.7298
▁obtain	-10.7301
▁administrator	-10.7306
▁Ser	-10.7307
▁Squadron	-10.7314
▁isolated	-10.7315
▁Abbey	-10.7318
▁replacement	-10.732
▁trading	-10.7322
sey	-10.7326
eta	-10.733
▁Fer	-10.733
▁mathematical	-10.7331
ute	-10.7332
▁jurisdiction	-10.7335
▁policies	-10.7335
}}	-10.7337
▁mono	-10.7344
▁Ambassador	-10.7347
▁Bra	-10.7349
PC	-10.735
▁leaf	-10.735
▁bill	-10.7352
▁dog	-10.7355
▁riding	-10.7355
▁Jimmy	-10.7356
burn	-10.736
▁assumed	-10.7361
▁variant	-10.7365
▁notes	-10.7367
▁provinces	-10.7369
lock	-10.737
▁Bou	-10.737
med	-10.7374
▁movies	-10.7374
▁weapons	-10.7375
▁doubles	-10.7387
dra	-10.739
▁Kha	-10.7392
pha	-10.7392
aki	-10.7394
▁Auto	-10.7395
▁restored	-10.7396
ade	-10.7397
▁avoid	-10.7397
ien	-10.7398
▁UEFA	-10.7404
▁cousin	-10.7405
▁Filipino	-10.7406
related	-10.7409
▁wooden	-10.7416
▁grown	-10.7416
▁youngest	-10.7424
▁How	-10.743
▁visible	-10.743
▁LP	-10.7431
▁yards	-10.7432
No	-10.7435
OS	-10.7443
▁Bus	-10.7446
ра	-10.7449
▁bottom	-10.7449
▁tourist	-10.7458
а	-10.7461
▁Im	-10.7462
nica	-10.7462
▁administered	-10.7464
▁bring	-10.7466
elected	-10.7469
▁ruler	-10.7474
▁Twenty	-10.7475
▁Kil	-10.7479
▁twin	-10.7494
▁connecting	-10.7495
▁incumbent	-10.7496
▁Abu	-10.7502
rid	-10.7503
▁Small	-10.7506
▁flying	-10.7509
xi	-10.751
▁situation	-10.7511
▁attributed	-10.7511
▁Bas	-10.7515
▁draw	-10.7518
list	-10.7522
▁kingdom	-10.7525
▁ceased	-10.7531
▁solution	-10.7545
▁lands	-10.7545
▁document	-10.7545
ichi	-10.7546
▁movements	-10.7546
▁virtual	-10.7547
▁Georgian	-10.7547
▁linear	-10.7548
▁pick	-10.7549
▁threatened	-10.7551
uli	-10.7553
▁Neo	-10.7553
▁capture	-10.7554
▁grounds	-10.7555
▁extremely	-10.7555
ux	-10.756
▁Dick	-10.7561
▁violence	-10.7561
▁begins	-10.7565
▁summit	-10.7567
▁sculpture	-10.757
▁Mari	-10.7572
▁Gal	-10.7579
▁swimming	-10.7579
scale	-10.7583
▁mechanical	-10.7586
▁strategy	-10.7588
▁pen	-10.759
▁purchase	-10.7594
▁proteins	-10.7595
▁killing	-10.7603
▁Wei	-10.7603
▁blues	-10.7605
fl	-10.7608
▁Kai	-10.7609
▁legislative	-10.761
bre	-10.7612
▁territories	-10.7613
▁officials	-10.7613
▁Fine	-10.7613
▁meant	-10.7614
ui	-10.7616
▁morning	-10.7617
mal	-10.7619
▁Side	-10.762
▁Wing	-10.7629
▁pandemic	-10.763
gra	-10.7634
room	-10.7636
▁owners	-10.7637
▁becomes	-10.7654
▁Video	-10.7655
IC	-10.7658
▁shares	-10.7658
▁Peak	-10.7662
▁Ye	-10.7665
▁Together	-10.7668
▁easily	-10.7668
▁sitcom	-10.7668
cin	-10.7669
uma	-10.7671
▁Lan	-10.7671
▁ownership	-10.7673
hl	-10.7675
▁tool	-10.7679
▁metre	-10.7681
founded	-10.7685
view	-10.7687
▁Nord	-10.7691
zen	-10.7693
▁Jerusalem	-10.7694
ema	-10.7695
▁hamlet	-10.7695
lla	-10.7696
▁Call	-10.7698
▁editions	-10.77
▁retained	-10.7702
▁Branch	-10.7703
AP	-10.7706
▁Horse	-10.7708
▁reading	-10.7708
ı	-10.7709
▁remembered	-10.7716
eli	-10.7718
▁$000	-10.7718
▁Gray	-10.772
▁dancer	-10.7723
▁Century	-10.773
▁preserved	-10.7731
▁occasions	-10.7731
▁credit	-10.7734
▁Gun	-10.7737
state	-10.7739
▁visitors	-10.774
but	-10.7741
▁basin	-10.7741
▁Revolutionary	-10.7745
▁unusual	-10.7747
DC	-10.7757
▁driving	-10.7757
▁question	-10.7758
SP	-10.7758
▁normally	-10.7762
▁Set	-10.7764
ets	-10.7766
▁auto	-10.7768
▁ago	-10.777
▁toured	-10.7772
▁Buffalo	-10.7774
▁require	-10.7776
▁expedition	-10.7777
▁communications	-10.7778
▁broken	-10.7779
far	-10.7782
▁Attorney	-10.7783
▁...	-10.7785
▁Based	-10.7793
who	-10.7793
▁depending	-10.7796
▁improved	-10.7796
▁shooting	-10.7797
▁Gabriel	-10.7799
▁Friday	-10.7801
St	-10.7803
mes	-10.7807
vel	-10.7808
▁agriculture	-10.7808
atus	-10.781
▁capable	-10.7811
▁expert	-10.7812
ello	-10.7817
▁constant	-10.782
arch	-10.7823
▁dual	-10.7825
▁concerns	-10.7826
▁external	-10.783
▁acted	-10.7831
▁Raj	-10.7832
▁Ring	-10.7832
▁Barbara	-10.7839
▁talk	-10.7843
▁Saskatchewan	-10.7843
▁string	-10.7845
▁inner	-10.7845
Be	-10.7846
▁Vincent	-10.785
▁indie	-10.785
▁Saudi	-10.7855
▁license	-10.7855
Ba	-10.7856
▁boxer	-10.7857
▁Au	-10.7858
▁Lloyd	-10.7864
▁scenes	-10.7864
ob	-10.7868
AC	-10.787
▁revealed	-10.7871
▁sa	-10.7872
▁proved	-10.7873
▁fort	-10.7875
у	-10.7879
▁wrestler	-10.788
▁Through	-10.7881
▁Ven	-10.7883
bin	-10.789
called	-10.7893
▁abbreviated	-10.7897
▁snails	-10.7899
▁phrase	-10.79
▁photo	-10.79
▁severe	-10.7906
▁ruling	-10.7908
ff	-10.7911
hy	-10.7911
▁Ny	-10.7916
▁mental	-10.7926
▁dialect	-10.7926
▁chamber	-10.7926
▁Somerset	-10.7929
▁golf	-10.7931
▁appointment	-10.7931
ological	-10.794
▁Syria	-10.7941
▁Leon	-10.7943
▁Pin	-10.7943
▁lieutenant	-10.7944
▁Circuit	-10.7947
▁charged	-10.7947
▁Child	-10.7952
ر	-10.7953
▁tenure	-10.7954
gh	-10.7955
▁consider	-10.7956
▁0000-00.	-10.7956
▁Such	-10.7956
He	-10.7957
▁Challenge	-10.7961
Ro	-10.7962
▁predominantly	-10.7965
oid	-10.7966
our	-10.7968
▁clan	-10.797
uff	-10.7972
▁advertising	-10.7973
tier	-10.7979
▁opponents	-10.7981
▁Norfolk	-10.7982
aj	-10.7982
bat	-10.7982
▁Mun	-10.7983
ec	-10.7985
▁diocese	-10.7986
▁praised	-10.7987
▁Rod	-10.7987
▁producers	-10.7989
▁routes	-10.799
▁Cooper	-10.7992
▁offering	-10.7993
▁Prague	-10.7999
▁archaeological	-10.8003
tte	-10.8004
▁Workers	-10.8009
▁Telugu	-10.8011
▁coalition	-10.8012
▁Pur	-10.8013
ado	-10.8014
▁extensively	-10.8015
▁significantly	-10.8017
gel	-10.8024
▁Actress	-10.8026
▁Non	-10.8027
▁visit	-10.8028
▁spiritual	-10.8029
▁creative	-10.803
▁photography	-10.8033
▁Woman	-10.8033
▁Jason	-10.8034
▁indoor	-10.8034
chief	-10.8041
▁passengers	-10.8045
▁Cultural	-10.8045
▁Tam	-10.8046
▁organ	-10.8047
▁Munich	-10.8048
▁Chair	-10.8049
hr	-10.8051
designated	-10.8054
▁Rail	-10.8059
ments	-10.8065
▁Estonian	-10.8068
▁onto	-10.8071
▁Steven	-10.8078
▁step	-10.8079
▁solar	-10.8082
▁poems	-10.8084
▁distinctive	-10.8084
▁Urban	-10.8088
▁recognised	-10.8095
master	-10.8095
ral	-10.8096
▁Wind	-10.8097
▁mu	-10.8098
▁Stockholm	-10.81
nar	-10.8102
▁Ottawa	-10.8105
ore	-10.8105
▁advance	-10.8106
ë	-10.8108
▁canton	-10.8109
▁aimed	-10.811
▁concerts	-10.8113
▁Evans	-10.8113
▁martial	-10.8117
kha	-10.8117
▁Barry	-10.8119
Star	-10.812
▁roots	-10.8127
▁Cer	-10.8129
▁trail	-10.8131
▁useful	-10.8131
▁Bern	-10.8133
▁Kara	-10.8133
▁dropped	-10.8136
ging	-10.8137
ST	-10.8139
▁printed	-10.814
sburg	-10.8141
▁Industrial	-10.8141
▁gain	-10.8144
▁vi	-10.8147
▁accompanied	-10.8149
▁airing	-10.8154
▁plane	-10.8154
chen	-10.8155
▁partial	-10.8157
▁tried	-10.8158
▁Harrison	-10.8159
▁Albanian	-10.816
▁chess	-10.816
▁Es	-10.8161
▁Transport	-10.8166
▁modified	-10.8167
▁assets	-10.8168
▁convicted	-10.8169
▁economist	-10.8176
▁Sussex	-10.8176
Ukrainian	-10.8177
ologist	-10.8178
hour	-10.8181
▁VI	-10.819
Con	-10.8195
mor	-10.8198
simplified	-10.8199
▁gender	-10.82
▁guard	-10.82
▁Renaissance	-10.82
▁ta	-10.8205
mit	-10.8206
▁Colonel	-10.8206
å	-10.8213
▁genera	-10.8215
▁Hell	-10.8223
nis	-10.8224
▁look	-10.8224
▁Manitoba	-10.8225
▁Poly	-10.823
▁Mall	-10.823
▁accident	-10.8231
MS	-10.8233
▁Cole	-10.8234
▁touring	-10.824
▁Brunswick	-10.8243
▁Computer	-10.8243
▁serious	-10.8245
▁Freedom	-10.8251
▁disbanded	-10.8252
▁About	-10.8253
▁statistical	-10.8253
▁requirements	-10.8254
▁resident	-10.8256
▁Florence	-10.8261
▁Sim	-10.8262
▁waters	-10.8265
▁things	-10.8266
▁Mass	-10.8266
uz	-10.8266
▁Marc	-10.8268
▁Harold	-10.8271
▁thousands	-10.8272
▁Oliver	-10.8273
▁Sho	-10.8285
▁animation	-10.8288
ites	-10.8292
▁Thi	-10.8292
▁Bosnia	-10.8293
log	-10.8294
▁Tang	-10.8295
▁theorem	-10.8307
AT	-10.8312
▁skills	-10.8312
▁w	-10.8314
ì	-10.8318
▁investigation	-10.8318
wer	-10.832
hand	-10.8326
▁Java	-10.8327
▁cancelled	-10.8328
▁transportation	-10.8336
▁00,000.	-10.8339
▁Horn	-10.8341
▁topics	-10.8342
▁stable	-10.8343
▁°	-10.8347
PA	-10.8349
▁Dominican	-10.8354
ー	-10.8355
▁Zi	-10.8355
▁Helen	-10.8357
▁ranks	-10.8362
rock	-10.8363
▁Gang	-10.8365
▁Essex	-10.8365
▁cited	-10.8369
ions	-10.8372
▁Vermont	-10.8374
▁requires	-10.8379
ious	-10.8381
▁Cabinet	-10.8383
lum	-10.8385
▁Andy	-10.8387
▁Kh	-10.8391
tt	-10.8396
▁chemistry	-10.8397
▁Alice	-10.8398
▁tells	-10.84
PS	-10.8401
▁fame	-10.8406
▁Drive	-10.8406
▁slow	-10.8406
▁UN	-10.8411
▁usage	-10.8411
▁studying	-10.8418
▁Independence	-10.8424
▁Rich	-10.8426
▁Sel	-10.8426
▁Charlie	-10.8427
▁Micro	-10.8429
▁resort	-10.8434
▁quantum	-10.8437
To	-10.8439
▁Low	-10.8439
▁governing	-10.844
▁terminal	-10.844
▁throne	-10.8442
pop	-10.8443
▁characteristics	-10.8445
▁aviation	-10.8446
▁Hope	-10.8447
▁panel	-10.8449
▁Yugoslavia	-10.8449
▁Cincinnati	-10.8451
▁criticism	-10.8454
bal	-10.8455
▁legislation	-10.8456
sley	-10.8457
pronounced	-10.8459
▁phone	-10.8459
▁frequent	-10.8463
▁limit	-10.8464
▁Nintendo	-10.8465
▁nor	-10.8466
▁Chamber	-10.8468
▁flower	-10.8472
▁molecular	-10.8472
ture	-10.8472
▁Lions	-10.8473
▁funded	-10.8474
Or	-10.8481
DA	-10.8481
▁submarine	-10.8484
MC	-10.8486
ili	-10.8486
▁speaker	-10.8487
▁civilian	-10.8488
▁Catherine	-10.8488
▁duties	-10.8488
▁Key	-10.849
▁ranging	-10.8492
ów	-10.8493
▁proper	-10.8497
▁Electric	-10.8499
▁Just	-10.85
▁Ty	-10.8501
▁resolution	-10.8502
▁net	-10.8506
▁infantry	-10.8507
hn	-10.8511
▁eldest	-10.8515
▁larvae	-10.8517
▁admitted	-10.852
▁heard	-10.8523
Pa	-10.8524
▁Raymond	-10.8529
▁Jin	-10.8539
▁Actor	-10.854
cent	-10.854
ş	-10.8541
▁asked	-10.8541
▁Buck	-10.8556
▁fair	-10.8556
▁committed	-10.8557
thy	-10.8557
tia	-10.8557
▁Much	-10.8558
▁somewhat	-10.8562
▁Keith	-10.8566
▁Interstate	-10.8567
season	-10.8568
ン	-10.8571
▁invited	-10.8571
ه	-10.8571
ew	-10.8571
▁ocean	-10.8574
и	-10.8575
▁ward	-10.858
▁translator	-10.8585
▁Additionally	-10.8587
adi	-10.8591
▁operational	-10.8593
▁SA	-10.8598
▁strip	-10.8601
▁Production	-10.8607
/;	-10.8608
▁infrastructure	-10.8608
▁reputation	-10.8608
▁subtropical	-10.8608
▁Parker	-10.8611
vy	-10.8612
▁Classic	-10.8612
▁progressive	-10.8616
▁toward	-10.8617
▁tail	-10.8618
alis	-10.8619
▁Magic	-10.8621
BC	-10.8623
▁adventure	-10.8623
▁Chan	-10.8623
▁Byzantine	-10.8624
▁Fri	-10.8632
▁Cold	-10.8633
▁festivals	-10.8634
▁commission	-10.8634
ota	-10.8635
▁ambassador	-10.8636
▁Mars	-10.8639
bank	-10.864
▁bay	-10.8641
▁qualifying	-10.8641
▁developer	-10.8646
▁demand	-10.8647
▁Yan	-10.865
nam	-10.8657
▁autonomous	-10.8657
tti	-10.8659
▁causing	-10.8664
▁giant	-10.8664
▁0,000.	-10.8664
SR	-10.8669
Ar	-10.867
▁nominee	-10.8674
▁forewings	-10.8679
▁implementation	-10.8679
most	-10.868
▁Bro	-10.8681
▁Por	-10.8682
▁chapter	-10.8683
▁amongst	-10.8685
▁Ecuador	-10.8685
▁Historical	-10.8691
▁Pol	-10.8692
▁Jefferson	-10.8692
▁Carr	-10.8693
▁Round	-10.87
▁j	-10.8703
▁Hudson	-10.8704
▁conservative	-10.8705
▁physicist	-10.8706
▁benefit	-10.8707
▁0%	-10.871
IP	-10.8713
▁Berkeley	-10.8715
MA	-10.8716
are	-10.8717
oh	-10.8717
▁Control	-10.872
▁demolished	-10.8722
▁Johann	-10.8723
titled	-10.8726
▁Fo	-10.8728
▁transmitter	-10.873
▁customers	-10.8731
▁discovery	-10.8735
ned	-10.8735
▁Sor	-10.8736
▁Turner	-10.8737
▁shop	-10.8743
▁cemetery	-10.8744
▁difference	-10.8744
▁Treaty	-10.8744
▁Tel	-10.8745
rate	-10.8747
▁Bull	-10.8748
▁Friedrich	-10.8748
▁Saints	-10.8749
▁download	-10.875
▁(0000,	-10.8752
▁lo	-10.8754
▁showed	-10.8754
▁begin	-10.8757
We	-10.8757
▁responsibility	-10.8758
▁Finance	-10.8758
▁instance	-10.876
aq	-10.876
▁Idaho	-10.8763
▁agreed	-10.8767
▁Dynasty	-10.8767
▁index	-10.877
ة	-10.8772
kel	-10.8774
TC	-10.8778
▁strike	-10.8779
▁Symphony	-10.8781
▁partially	-10.8783
▁00.000000°	-10.8786
▁Grey	-10.8787
▁variable	-10.8788
▁Plant	-10.8789
▁coverage	-10.8794
▁incident	-10.8796
▁Malayalam	-10.8796
til	-10.8796
▁soul	-10.8796
aba	-10.88
▁Rick	-10.88
▁legislature	-10.88
▁Conservation	-10.88
о	-10.8801
▁extreme	-10.8801
▁Outstanding	-10.8805
▁charity	-10.8805
▁homes	-10.8809
▁segment	-10.8811
▁Christianity	-10.8814
aro	-10.8818
ans	-10.882
gin	-10.8822
▁Thus	-10.8822
tive	-10.8827
▁Tigers	-10.8828
▁sentenced	-10.8831
▁survey	-10.8833
е	-10.8833
▁monastery	-10.8834
▁seed	-10.8835
▁Chilean	-10.8836
gram	-10.8837
chy	-10.8839
▁par	-10.8839
▁Julian	-10.8842
▁Staff	-10.8846
rk	-10.8848
▁offensive	-10.8851
▁ensure	-10.8853
▁intellectual	-10.8854
▁hour	-10.8855
▁marks	-10.8855
▁Lok	-10.8859
▁teachers	-10.8859
cker	-10.8859
inae	-10.886
sin	-10.886
▁Estonia	-10.8863
ister	-10.8866
▁Leo	-10.8866
▁crisis	-10.8867
▁participation	-10.8867
▁pa	-10.8869
▁Gil	-10.8873
▁expressed	-10.8875
▁syndrome	-10.8877
▁Perth	-10.8877
▁continuous	-10.8878
itt	-10.8882
▁links	-10.8883
▁memorial	-10.8886
▁economics	-10.8886
▁grandson	-10.889
▁Celtic	-10.8895
CD	-10.8897
▁Food	-10.89
▁scheme	-10.89
▁Blues	-10.8904
▁relationships	-10.8904
▁Craig	-10.8907
▁Collection	-10.891
hop	-10.8912
▁Brisbane	-10.8915
▁Lancashire	-10.8915
▁ministry	-10.8915
produced	-10.8917
stad	-10.8918
▁Brook	-10.8918
▁statue	-10.8918
▁dated	-10.892
▁accounts	-10.8921
▁Type	-10.8922
▁supports	-10.8927
▁Slovenia	-10.8931
ware	-10.8932
▁mainland	-10.8933
▁Ker	-10.8933
win	-10.8935
▁renowned	-10.8935
yne	-10.8935
iva	-10.8939
▁differences	-10.8942
▁concentration	-10.8944
▁Blood	-10.8946
▁Ros	-10.8947
uro	-10.8947
▁arena	-10.8953
▁Cro	-10.8957
▁distinction	-10.8958
▁restaurants	-10.896
EC	-10.8962
oon	-10.8962
▁Years	-10.8965
oo	-10.8966
eg	-10.8969
sometimes	-10.8974
sville	-10.8976
▁manner	-10.8979
▁commanded	-10.8981
▁texts	-10.8983
▁showing	-10.8984
act	-10.8986
▁experiences	-10.8986
vers	-10.8987
▁Venice	-10.8987
▁extends	-10.899
▁institute	-10.8992
▁mind	-10.8993
▁traditions	-10.8996
▁Qu	-10.8998
Me	-10.9
▁revenue	-10.9003
▁Cy	-10.9004
▁doctor	-10.9007
▁voting	-10.9007
ami	-10.9009
▁Yale	-10.9011
▁emperor	-10.9013
▁earning	-10.9014
▁Wilhelm	-10.9016
▁wanted	-10.9024
sco	-10.9025
▁quite	-10.9026
▁Deep	-10.9027
▁Stan	-10.9028
▁snow	-10.9029
▁emerged	-10.9033
▁Cork	-10.9033
▁Madison	-10.9036
life	-10.9038
č	-10.9039
▁comprising	-10.904
▁Bol	-10.9046
▁Tro	-10.9047
▁functional	-10.9048
bol	-10.9049
lle	-10.905
cio	-10.9052
tch	-10.9052
▁tied	-10.9052
▁column	-10.9056
▁fundamental	-10.906
▁Political	-10.906
TA	-10.906
▁diplomatic	-10.906
▁Oscar	-10.9061
▁undergraduate	-10.9061
pet	-10.9064
▁Ralph	-10.9065
▁mix	-10.9065
▁Tech	-10.9068
ن	-10.9069
▁artificial	-10.9069
▁palace	-10.907
get	-10.907
▁Jerry	-10.907
▁filmmaker	-10.9071
▁origins	-10.9071
▁Rev	-10.9075
wal	-10.9077
▁venture	-10.9078
▁Zo	-10.908
▁leads	-10.9085
▁hybrid	-10.9087
nal	-10.909
▁Jun	-10.9096
eki	-10.9098
▁technologies	-10.9104
yer	-10.9106
▁ka	-10.911
ax	-10.911
▁portal	-10.9114
ito	-10.9116
▁Bros	-10.9117
▁experienced	-10.9118
NFL	-10.9119
▁Stuart	-10.9123
▁schedule	-10.9124
▁posted	-10.9125
place	-10.9125
▁boys	-10.9126
▁choice	-10.9127
▁Confederate	-10.9128
It	-10.913
▁Methodist	-10.9134
West	-10.9137
▁Sultan	-10.9138
▁controversy	-10.9138
▁Perry	-10.9138
fin	-10.9141
bed	-10.9143
▁Mind	-10.9144
▁Marvel	-10.9144
▁Cuban	-10.9151
die	-10.9152
▁Training	-10.9157
nus	-10.9159
▁finance	-10.9159
▁Hard	-10.9162
▁comprehensive	-10.9162
▁Tin	-10.9164
selling	-10.9164
kai	-10.9164
▁discontinued	-10.9166
▁broadcasts	-10.9166
▁studios	-10.9167
▁industries	-10.9167
▁pan	-10.9167
▁Ob	-10.917
▁tank	-10.9172
▁Kumar	-10.9173
▁Northwest	-10.9174
▁liberal	-10.9179
▁magazines	-10.9181
▁enemy	-10.9182
▁papers	-10.9184
▁god	-10.9184
dimensional	-10.9187
▁know	-10.9188
▁abolished	-10.9188
▁Wi	-10.9189
hal	-10.9192
▁Robin	-10.9193
▁description	-10.9194
▁Morocco	-10.9197
▁Construction	-10.9197
▁Vegas	-10.92
bor	-10.9201
▁0.0%	-10.9202
▁colony	-10.9209
▁dissolved	-10.9213
▁Ski	-10.9213
▁Here	-10.9214
ović	-10.9214
▁periods	-10.9216
▁geometry	-10.9217
▁advocate	-10.9217
book	-10.9218
▁Ground	-10.922
▁newspapers	-10.9221
ash	-10.9224
▁regime	-10.9226
▁Gilbert	-10.9227
▁convention	-10.923
▁unable	-10.9232
▁Nam	-10.9233
▁fund	-10.9234
lands	-10.9236
▁Collins	-10.9241
▁Leader	-10.9248
▁rice	-10.925
▁maintenance	-10.9251
▁ibn	-10.9251
An	-10.9252
▁Daily	-10.9252
▁indicate	-10.9253
▁falls	-10.9253
ois	-10.9254
▁walk	-10.9255
▁Lebanon	-10.9258
▁marketed	-10.9259
▁crown	-10.9261
ser	-10.9261
▁Railways	-10.9264
▁Gra	-10.9265
▁contribution	-10.9267
▁Golf	-10.927
▁gay	-10.927
▁delivered	-10.9271
▁Secret	-10.9275
▁Manuel	-10.9277
▁bin	-10.9278
00)	-10.9278
▁Kam	-10.9278
▁squadron	-10.9278
▁Provincial	-10.9278
▁MTV	-10.9288
▁MS	-10.9289
▁beauty	-10.9291
▁pale	-10.9294
▁Protestant	-10.9296
▁Fall	-10.9296
▁nicknamed	-10.9298
▁disorder	-10.9298
▁Hunt	-10.9299
▁Grove	-10.9301
▁goes	-10.9303
▁database	-10.9303
و	-10.9305
▁Action	-10.9308
▁characteristic	-10.931
▁Say	-10.931
▁Bat	-10.9313
▁Armed	-10.9314
▁Films	-10.9318
▁mo	-10.932
م	-10.932
▁hectares	-10.9322
▁Lou	-10.9323
▁h	-10.9326
▁sun	-10.9328
▁Mah	-10.933
▁concrete	-10.9331
▁butterfly	-10.9331
▁Petersburg	-10.9332
▁calls	-10.9333
▁em	-10.9334
▁jump	-10.9337
▁Bin	-10.9339
▁collective	-10.934
▁vary	-10.9341
▁Shanghai	-10.9341
key	-10.9341
▁representatives	-10.9343
iidae	-10.9343
ids	-10.935
▁Hon	-10.935
▁believe	-10.9354
▁Gas	-10.9354
las	-10.9355
▁Dragon	-10.9356
▁sciences	-10.9357
▁interface	-10.9359
▁channels	-10.9362
had	-10.9365
▁Phoenix	-10.9366
▁im	-10.9366
▁Wo	-10.9374
▁Assistant	-10.9381
▁powers	-10.9381
▁Chang	-10.9383
▁Oslo	-10.9384
▁tie	-10.9385
▁Pedro	-10.9388
▁interview	-10.9389
▁peninsula	-10.9391
▁Neu	-10.9393
▁earth	-10.9397
sum	-10.9398
▁Rai	-10.9398
▁computers	-10.94
▁000.00	-10.9401
▁cathedral	-10.9406
raj	-10.9408
Do	-10.9409
▁Denver	-10.9412
▁striker	-10.9412
▁thick	-10.9416
▁departure	-10.9416
shire	-10.9418
lat	-10.9419
transl	-10.9421
lay	-10.9421
▁think	-10.9422
uck	-10.9425
▁reservoir	-10.9426
cut	-10.9426
▁PhD	-10.9428
▁landing	-10.943
ɾ	-10.9431
▁Uganda	-10.9433
▁sung	-10.9434
▁sell	-10.9434
avi	-10.944
sp	-10.9441
▁entering	-10.9443
Li	-10.9444
-00)	-10.9444
▁Kirk	-10.9446
▁Once	-10.9447
▁sugar	-10.9447
▁radical	-10.945
▁Bag	-10.9451
▁aims	-10.9451
▁Rat	-10.9454
▁peaking	-10.9455
▁meat	-10.9455
▁Karnataka	-10.9457
matic	-10.946
▁receptor	-10.9463
▁Ay	-10.9464
▁housed	-10.9464
▁minority	-10.9466
▁Auckland	-10.9467
▁Ter	-10.9468
round	-10.9476
▁productions	-10.9476
speaking	-10.9476
▁0.000	-10.9477
▁Dog	-10.9479
▁told	-10.948
NA	-10.9484
tern	-10.9488
▁internet	-10.9488
▁carrying	-10.9489
▁whereas	-10.9489
▁Nashville	-10.9498
▁Previously	-10.9498
▁considerable	-10.9499
▁corresponding	-10.95
▁rival	-10.9501
▁Off	-10.9504
▁Holland	-10.9504
bur	-10.9505
Mar	-10.9506
ben	-10.9508
▁Vas	-10.9509
▁ahead	-10.951
▁consumer	-10.9511
▁journey	-10.9518
▁row	-10.9519
▁Paulo	-10.952
▁alone	-10.9521
▁Leeds	-10.9525
▁populated	-10.9526
vor	-10.9529
▁Contemporary	-10.9533
▁privately	-10.9534
▁Monday	-10.9535
én	-10.9535
▁Hand	-10.9536
▁Ap	-10.9538
▁sum	-10.9541
▁Mai	-10.9541
▁erected	-10.9543
▁decline	-10.9549
▁tournaments	-10.9553
▁completion	-10.9553
=	-10.9555
▁something	-10.9558
▁Montgomery	-10.9558
▁tribes	-10.9559
▁request	-10.956
▁Chester	-10.9564
Pro	-10.9564
▁honorary	-10.9565
rt	-10.9566
▁Has	-10.9567
uc	-10.9573
▁Storm	-10.9576
▁dominated	-10.9578
▁Universe	-10.9579
▁locomotives	-10.958
▁exception	-10.958
▁Isle	-10.9581
▁framework	-10.9585
▁Work	-10.9589
SI	-10.959
▁directors	-10.9592
▁abuse	-10.9592
▁Amazon	-10.9593
▁starts	-10.9597
awa	-10.9598
▁worship	-10.9599
▁Maharashtra	-10.9599
▁defence	-10.9601
▁cold	-10.9606
▁principle	-10.9606
▁adults	-10.9607
▁Cruz	-10.9609
▁theatrical	-10.9609
▁managing	-10.961
▁Em	-10.9611
ɐ	-10.9615
▁Intelligence	-10.9617
▁relation	-10.9619
▁Sheffield	-10.962
▁hardware	-10.9621
▁Members	-10.9625
mine	-10.9625
▁evolved	-10.9627
▁Susan	-10.9628
▁Stra	-10.9628
ка	-10.9629
▁Š	-10.9631
▁Recording	-10.9632
▁Papua	-10.9634
ving	-10.9634
▁count	-10.9635
▁extent	-10.9636
▁involvement	-10.9636
▁accused	-10.9638
▁Snow	-10.9638
▁Fleet	-10.9641
▁Franco	-10.9641
▁hired	-10.9643
▁Sr	-10.9643
action	-10.9645
▁Data	-10.9647
rah	-10.9648
▁electricity	-10.9649
ches	-10.9653
▁orders	-10.9653
▁losses	-10.966
▁Archbishop	-10.9661
▁Built	-10.9661
▁Dennis	-10.9662
▁Kur	-10.9663
▁Mother	-10.9666
▁Wang	-10.967
▁Bird	-10.9674
playing	-10.9676
▁Grande	-10.9676
▁Clinton	-10.9677
▁graph	-10.968
▁Masters	-10.9682
ʃ	-10.9682
br	-10.9683
▁Get	-10.9683
▁Mil	-10.969
ym	-10.969
▁fluid	-10.9691
▁Qa	-10.9697
▁credits	-10.97
▁wider	-10.9703
▁Shaw	-10.9703
▁partly	-10.9712
▁charted	-10.9713
▁genetic	-10.9714
▁Wil	-10.9714
▁stem	-10.9715
▁competes	-10.9716
▁researcher	-10.9716
▁dominant	-10.9719
▁conduct	-10.972
▁Madagascar	-10.9723
▁Hamburg	-10.9724
tum	-10.9726
▁Derby	-10.973
▁Contest	-10.973
▁plastic	-10.9731
▁freshwater	-10.9734
▁inventor	-10.9738
▁handball	-10.9745
ste	-10.9746
▁advantage	-10.9755
▁cards	-10.9757
▁behalf	-10.9757
▁identify	-10.9758
met	-10.9761
▁depth	-10.9762
hen	-10.9767
▁Rhode	-10.9767
▁inches	-10.977
▁abroad	-10.977
▁hundreds	-10.977
Ta	-10.9773
▁Aires	-10.9774
▁Giants	-10.9779
▁habitats	-10.978
▁Google	-10.9781
ago	-10.9782
under	-10.9783
▁Wy	-10.9784
▁Raja	-10.9785
ved	-10.9786
▁acquisition	-10.9786
▁bonus	-10.9792
▁Terry	-10.9793
▁Penn	-10.9793
▁pageant	-10.9794
mic	-10.9799
▁creator	-10.9803
iki	-10.9804
▁unsuccessful	-10.9806
▁viewers	-10.9806
▁grass	-10.9815
▁Father	-10.9816
▁outer	-10.9817
▁Rosa	-10.982
▁Neil	-10.9821
Ra	-10.9825
▁Otto	-10.9825
▁-00.000	-10.9827
▁whilst	-10.9828
▁fifteen	-10.9831
▁bid	-10.9833
▁cur	-10.9833
▁hyper	-10.9836
▁Tal	-10.9836
▁Player	-10.9841
▁}	-10.9843
▁Bachelor	-10.9844
▁significance	-10.9844
▁charter	-10.9844
▁Fra	-10.9845
▁milk	-10.9845
▁prepared	-10.9846
zan	-10.9848
▁Cam	-10.9851
box	-10.9852
eb	-10.986
▁mini	-10.9861
▁0-0-0	-10.9862
▁compact	-10.9864
▁Card	-10.9864
▁Tr	-10.9865
▁Aviation	-10.9865
▁Grace	-10.9869
▁copy	-10.9871
▁YouTube	-10.9872
▁Chen	-10.9873
RA	-10.9874
▁promoting	-10.9875
ε	-10.9879
▁viewed	-10.9879
eva	-10.988
▁(0)	-10.9883
rick	-10.9885
▁drawing	-10.9887
▁farmer	-10.9887
ido	-10.9889
ory	-10.9892
▁dish	-10.9893
▁ends	-10.9894
▁doing	-10.9894
▁Junction	-10.9897
▁consultant	-10.9897
▁premier	-10.9898
RS	-10.9899
";	-10.9904
▁Drama	-10.9905
horn	-10.9908
▁Newcastle	-10.9909
▁Tele	-10.9913
▁thin	-10.9915
sized	-10.9919
▁monthly	-10.992
▁consist	-10.9922
maker	-10.9923
▁motorcycle	-10.9925
frac	-10.9928
▁Jacques	-10.993
▁uncle	-10.9932
ē	-10.9937
▁constituencies	-10.9939
▁Fan	-10.9942
▁layer	-10.9943
▁hero	-10.9946
▁wear	-10.9947
▁compounds	-10.9949
α	-10.9957
▁resignation	-10.9961
▁strategic	-10.9965
heim	-10.9966
CR	-10.9967
▁evolution	-10.997
ico	-10.9972
▁principles	-10.9975
aire	-10.9975
▁Events	-10.9976
▁collaborated	-10.9978
▁ongoing	-10.9979
free	-10.9982
▁Pal	-10.9985
▁Buenos	-10.9987
Ka	-10.9987
▁ISO	-10.9988
▁psychology	-10.9992
▁gang	-10.9997
▁philanthropist	-10.9997
▁clothing	-10.9998
▁Uttar	-10.9999
▁generated	-11.0002
▁Gan	-11.0003
▁É	-11.0003
▁roll	-11.0006
▁Leonard	-11.0014
brook	-11.0014
▁pin	-11.0017
▁noble	-11.0019
▁Guide	-11.0022
▁0,000,000	-11.0025
▁diseases	-11.0026
▁Diamond	-11.0028
ridge	-11.003
▁orange	-11.0031
▁households	-11.0033
▁Initially	-11.0036
▁Gur	-11.0036
ш	-11.0041
range	-11.0042
mond	-11.0043
{	-11.0043
▁pool	-11.0044
IA	-11.0045
▁assistance	-11.0046
▁conventional	-11.0046
ras	-11.0048
▁Est	-11.0058
▁execution	-11.0062
▁lay	-11.0063
drama	-11.0063
▁م	-11.0069
▁locomotive	-11.0071
з	-11.0072
lot	-11.0072
▁Scientific	-11.0073
▁rebuilt	-11.0075
▁suicide	-11.0078
chin	-11.0078
▁Stars	-11.0078
▁grades	-11.0082
▁temporary	-11.0083
▁codes	-11.0085
▁shooter	-11.0086
▁charges	-11.0089
▁specialist	-11.0092
yang	-11.0093
▁servant	-11.0093
ened	-11.0095
▁Technical	-11.0096
bri	-11.0096
▁Planet	-11.0096
▁Web	-11.0097
▁corporation	-11.0099
▁Vladimir	-11.0099
▁derives	-11.01
Latin	-11.0103
eau	-11.0103
▁alternate	-11.0104
▁damaged	-11.0105
inus	-11.0106
▁lot	-11.0109
▁graphic	-11.011
▁poll	-11.0114
▁Mumbai	-11.0116
▁Circle	-11.0116
▁Surrey	-11.0116
tta	-11.0116
▁mainstream	-11.0117
▁identical	-11.0121
▁Wildlife	-11.0121
ž	-11.0121
▁remote	-11.0126
▁emergency	-11.0127
▁crater	-11.0127
▁eliminated	-11.0129
▁Beck	-11.0134
▁performer	-11.0137
mir	-11.0137
iti	-11.014
▁retiring	-11.0143
▁mode	-11.0148
▁Artist	-11.0149
phi	-11.015
▁Panama	-11.015
late	-11.0151
▁Th	-11.0152
▁$00,000	-11.0152
▁Bath	-11.0153
▁changing	-11.0154
▁Continental	-11.0154
▁researchers	-11.0156
▁Copenhagen	-11.0159
▁mineral	-11.016
lee	-11.016
▁Financial	-11.0164
▁encompasses	-11.0165
▁fill	-11.0167
▁Swan	-11.0169
▁horses	-11.0169
nell	-11.017
▁subspecies	-11.017
▁Bala	-11.0172
ual	-11.0172
▁rooms	-11.0174
▁minimum	-11.0175
▁childhood	-11.0176
▁el	-11.0177
Na	-11.0179
Irish	-11.0179
▁Berg	-11.0181
▁Bavaria	-11.0183
listed	-11.0185
SE	-11.0185
▁mechanism	-11.0187
▁Durham	-11.0187
▁Nine	-11.0189
chan	-11.0191
▁prince	-11.0193
▁vision	-11.0195
LA	-11.0195
▁thirteen	-11.0195
▁perspective	-11.0197
▁imperial	-11.0197
amba	-11.0198
put	-11.0198
▁Larry	-11.02
▁Delta	-11.0202
member	-11.0202
ij	-11.0202
▁Wellington	-11.0203
eur	-11.0203
▁constitutional	-11.021
rell	-11.0211
wen	-11.0212
▁strongly	-11.0213
ties	-11.0214
els	-11.022
▁Ernest	-11.0224
▁Chapel	-11.0225
▁Cinema	-11.0228
yr	-11.0228
▁telephone	-11.023
▁athletic	-11.0231
▁Mis	-11.0234
▁lowest	-11.0234
▁aim	-11.0239
▁measured	-11.0239
▁neo	-11.0241
cle	-11.0242
▁illustrator	-11.0246
▁Movie	-11.0249
▁invented	-11.0252
▁Butler	-11.0253
▁Globe	-11.0254
▁missions	-11.0254
▁genres	-11.0255
▁males	-11.0258
▁tunnel	-11.0259
▁Performance	-11.0263
▁Gregory	-11.0264
▁Pla	-11.0266
▁Bear	-11.0266
▁spaces	-11.0267
SL	-11.0269
▁(000.0	-11.0269
ians	-11.0273
▁suggests	-11.0273
▁Transportation	-11.0275
▁scientists	-11.0275
Di	-11.0276
Lo	-11.0277
▁loop	-11.0279
▁naming	-11.028
▁independently	-11.0285
▁accessible	-11.0291
▁trust	-11.0293
▁talent	-11.0294
▁Yi	-11.0295
▁relief	-11.0295
▁queen	-11.0298
illo	-11.0301
ars	-11.0302
game	-11.0303
ович	-11.0303
ت	-11.0304
▁AC	-11.0308
▁stay	-11.031
▁detailed	-11.0311
▁sessions	-11.0311
gli	-11.0312
▁Wyoming	-11.0312
▁Agriculture	-11.0312
▁playoffs	-11.0314
iri	-11.0315
▁Med	-11.0317
▁faced	-11.0318
▁Future	-11.0318
▁Steel	-11.0319
▁Original	-11.032
▁app	-11.032
▁statistics	-11.032
order	-11.0326
▁Ang	-11.0326
▁chapel	-11.0329
▁Indies	-11.0334
▁alliance	-11.0334
▁rain	-11.0337
▁Joan	-11.0338
▁anchor	-11.034
▁Anton	-11.0342
lived	-11.0346
▁Lac	-11.0346
▁Pas	-11.0347
▁Sei	-11.0348
▁drugs	-11.0348
▁Ronald	-11.0349
stan	-11.0352
onia	-11.0353
fiction	-11.0354
▁Within	-11.0356
▁Comedy	-11.0357
▁Franz	-11.036
▁Gothic	-11.0362
▁vinyl	-11.0362
bound	-11.0363
▁outstanding	-11.0364
▁epi	-11.0364
▁Kay	-11.0371
▁receiver	-11.0371
rio	-11.0373
via	-11.0374
▁descendants	-11.0376
▁legend	-11.0377
cre	-11.0378
▁Slovakia	-11.0378
▁SC	-11.0383
▁Battalion	-11.0384
▁Had	-11.0389
▁specialize	-11.0391
▁bounded	-11.0394
▁continuing	-11.0395
▁Mason	-11.0396
▁carries	-11.0398
▁Episcopal	-11.0401
▁remake	-11.0401
▁Myanmar	-11.0404
▁moist	-11.0404
cer	-11.0404
▁debate	-11.0405
▁sc	-11.0405
▁Abraham	-11.0407
hat	-11.0407
▁surgery	-11.0407
▁Az	-11.0411
RC	-11.0413
nor	-11.0414
▁0000/00	-11.0416
dam	-11.0418
vit	-11.0419
▁say	-11.0422
▁treaty	-11.0424
▁Herzegovina	-11.0425
▁refused	-11.0425
int	-11.0426
▁reporter	-11.0426
▁Malaysian	-11.043
IS	-11.0433
▁Store	-11.0434
etti	-11.0436
▁perennial	-11.044
nce	-11.0441
▁patrol	-11.0443
CH	-11.0443
▁transit	-11.0445
▁structural	-11.0445
▁carrier	-11.0446
▁cargo	-11.0446
▁commercially	-11.0448
EP	-11.0448
▁prestigious	-11.0451
oka	-11.0451
CC	-11.0451
▁Palm	-11.0453
▁agents	-11.0454
▁grant	-11.0457
▁rifle	-11.0457
▁blocks	-11.0459
▁raise	-11.046
▁Sto	-11.0462
▁Bolivia	-11.0463
▁Luxembourg	-11.047
▁batsman	-11.0475
κ	-11.048
ר	-11.0482
▁influences	-11.0482
▁patient	-11.0482
▁Wal	-11.0484
▁variants	-11.0485
▁magnitude	-11.0485
▁elder	-11.0486
▁cult	-11.0492
▁narrative	-11.0493
▁costs	-11.0494
▁attracted	-11.0495
▁hence	-11.0498
▁trip	-11.0503
anga	-11.0509
py	-11.0509
▁escape	-11.051
▁Rogers	-11.0511
▁Species	-11.0513
▁Democrats	-11.0515
▁Rama	-11.0516
▁optical	-11.052
▁participants	-11.0521
▁Wen	-11.0522
▁acclaim	-11.053
▁Basin	-11.0537
▁Taka	-11.0538
▁Lithuania	-11.0538
lus	-11.0543
▁Zu	-11.0545
mis	-11.0549
lio	-11.0551
▁lu	-11.0551
▁Kat	-11.0553
▁rapidly	-11.0555
▁rap	-11.0558
▁Policy	-11.0558
▁logic	-11.0558
eni	-11.0559
▁Mills	-11.0561
▁statement	-11.0566
▁Mus	-11.0567
▁Arabia	-11.0568
dic	-11.0568
▁shell	-11.0569
▁Joint	-11.0572
▁medalist	-11.0572
▁root	-11.0574
▁Dai	-11.0574
▁Ac	-11.0581
▁scholarship	-11.0582
▁Machine	-11.0582
▁secure	-11.0583
▁Mol	-11.0586
▁Kir	-11.0591
▁und	-11.0591
▁Stanford	-11.0593
oi	-11.0593
▁Jamaica	-11.0601
▁automobile	-11.0606
hall	-11.0608
▁cloud	-11.0609
lor	-11.0611
CP	-11.0614
▁acclaimed	-11.0614
▁participating	-11.0615
▁filled	-11.0616
▁portrait	-11.0619
▁Gran	-11.0621
▁François	-11.0622
ire	-11.0623
wo	-11.0623
dor	-11.0626
iel	-11.0626
gg	-11.0628
pal	-11.063
▁po	-11.063
▁botanist	-11.0632
▁vast	-11.0632
▁herself	-11.0635
▁topped	-11.0641
▁Progressive	-11.0644
Da	-11.0646
▁Colombian	-11.0646
▁speakers	-11.0648
▁smooth	-11.0649
▁owns	-11.0649
▁Season	-11.0651
▁circle	-11.0651
▁Faculty	-11.0654
LP	-11.0655
she	-11.0657
▁ensemble	-11.0658
ль	-11.066
ants	-11.0661
▁advisor	-11.0663
▁Eagles	-11.0663
▁Rangers	-11.0664
▁appropriate	-11.0665
ech	-11.0665
▁congressional	-11.0666
▁broadcaster	-11.0668
und	-11.067
rod	-11.0672
▁Devon	-11.0672
▁latest	-11.0674
▁lifetime	-11.0677
yi	-11.0677
▁Solomon	-11.0678
▁devoted	-11.0679
Thai	-11.068
▁tissue	-11.0681
▁theories	-11.0681
AD	-11.0681
▁log	-11.0682
▁nineteenth	-11.0686
▁Kill	-11.0691
▁suspended	-11.0696
▁relocated	-11.0696
▁Rica	-11.0697
▁Speaker	-11.07
▁focusing	-11.07
▁ni	-11.0702
▁lb	-11.0702
▁Tsu	-11.0702
▁Pine	-11.0702
י	-11.0703
▁lakes	-11.0703
▁Tasmania	-11.0704
▁organisations	-11.0706
itz	-11.0706
▁enforcement	-11.0706
FC	-11.0707
where	-11.0712
Urdu	-11.0713
▁0000-0000),	-11.0714
uga	-11.0714
▁attacked	-11.0714
▁Arnold	-11.0718
ming	-11.0718
ography	-11.0718
▁Well	-11.0723
▁Paralympics	-11.0723
▁communist	-11.0728
▁Number	-11.073
▁crash	-11.0731
▁BCE	-11.0731
▁founders	-11.0734
▁Edmund	-11.0735
▁Left	-11.0736
▁rising	-11.0741
▁Vietnamese	-11.0743
▁wheel	-11.0743
▁Maha	-11.0745
▁inspiration	-11.0745
▁mixture	-11.0746
▁publicly	-11.0752
distance	-11.0753
▁comics	-11.0755
▁cattle	-11.0758
▁innings	-11.076
pat	-11.0761
minute	-11.0762
▁overseas	-11.0764
▁Week	-11.0764
▁effectively	-11.0764
boat	-11.0766
ons	-11.0767
▁illegal	-11.0769
▁arch	-11.0769
▁Eurovision	-11.0769
▁pseudonym	-11.0772
▁si	-11.0772
vol	-11.0773
▁Ages	-11.0774
AR	-11.0774
▁nephew	-11.0775
▁Indianapolis	-11.0775
▁constitution	-11.0776
uni	-11.0776
▁correct	-11.078
▁prominence	-11.0781
▁treated	-11.0783
kal	-11.0784
▁theoretical	-11.0786
two	-11.0786
▁Spirit	-11.0787
▁stayed	-11.0792
etta	-11.0792
ult	-11.08
▁breed	-11.08
▁chance	-11.0801
usa	-11.0802
▁Testament	-11.0804
▁romance	-11.0804
▁Picture	-11.0804
iana	-11.0805
▁variation	-11.081
▁graduating	-11.081
▁revival	-11.081
▁Literature	-11.081
▁Fisher	-11.0811
seat	-11.0812
▁rates	-11.0816
▁portions	-11.0819
cell	-11.082
▁rating	-11.0822
ations	-11.0822
▁Zimbabwe	-11.0822
▁machines	-11.0824
▁Beat	-11.0824
▁learn	-11.0825
▁athletics	-11.0826
▁leagues	-11.0827
▁Kun	-11.0829
▁Lutheran	-11.0829
▁Cyprus	-11.0833
lé	-11.0835
Go	-11.0835
▁weapon	-11.0836
▁Days	-11.0838
▁Mul	-11.0841
▁specializ	-11.0843
▁solutions	-11.0846
▁rounds	-11.0849
▁qualify	-11.0849
▁Rap	-11.085
▁inherited	-11.0852
▁restricted	-11.0854
▁AFL	-11.0856
▁emphasis	-11.0856
▁declined	-11.0861
ique	-11.0863
cor	-11.0865
wy	-11.0866
▁00.000000	-11.0866
▁caps	-11.0868
ES	-11.0869
▁Slovak	-11.0871
▁banking	-11.0877
▁grandfather	-11.0877
▁select	-11.088
▁affiliate	-11.0884
▁helping	-11.0885
▁Was	-11.0886
▁Milwaukee	-11.0888
▁Bio	-11.0892
▁plain	-11.0895
▁biology	-11.0896
You	-11.0897
▁outbreak	-11.0898
▁tests	-11.0899
▁coup	-11.0899
▁acoustic	-11.0899
▁attend	-11.0907
▁plate	-11.0907
▁Harvey	-11.0909
▁Indoor	-11.091
▁fur	-11.0911
▁tourism	-11.0911
▁passage	-11.0912
▁bomb	-11.0912
▁concerning	-11.0914
nel	-11.0915
▁percentage	-11.0917
ɔ	-11.0922
▁Survey	-11.0923
inch	-11.0923
▁Abdul	-11.0928
▁Isaac	-11.093
▁huge	-11.0933
away	-11.0936
▁visiting	-11.0937
▁Boulevard	-11.0938
▁respective	-11.0939
▁Formation	-11.0939
▁Roll	-11.094
▁su	-11.0941
▁preparation	-11.0944
▁Software	-11.0944
▁Wells	-11.0945
▁protest	-11.0946
▁triple	-11.0948
anti	-11.0955
▁safe	-11.0956
▁implemented	-11.0956
▁Lost	-11.096
▁arrival	-11.0962
▁drums	-11.0963
▁Liberty	-11.0963
ges	-11.0963
some	-11.0965
▁evening	-11.0968
ration	-11.0968
▁Note	-11.0969
▁'00	-11.097
white	-11.0971
yard	-11.0973
▁cuisine	-11.0973
▁Protection	-11.0973
feld	-11.0973
▁Lithuanian	-11.0977
▁Newton	-11.0978
▁Santiago	-11.0979
▁greatly	-11.0983
cat	-11.0983
▁Vin	-11.0983
▁Baby	-11.0985
▁establishing	-11.0987
▁algorithm	-11.0988
ush	-11.0989
▁Sad	-11.0993
berry	-11.0994
▁referring	-11.0996
IT	-11.0997
▁governments	-11.0998
ates	-11.1005
▁task	-11.1008
▁Dur	-11.1012
▁Columbus	-11.1015
▁thousand	-11.1016
▁fresh	-11.1016
▁cluster	-11.1018
▁apparent	-11.102
▁boats	-11.1024
▁Cornwall	-11.1025
▁Shakespeare	-11.1026
▁Every	-11.1028
lov	-11.1028
▁Henri	-11.1029
▁Michel	-11.1029
▁colors	-11.103
▁increasingly	-11.1031
▁speak	-11.1037
name	-11.1038
▁Let	-11.104
▁belonged	-11.1041
AF	-11.1044
gor	-11.1045
▁Indo	-11.1046
▁publishes	-11.1047
▁platinum	-11.1047
▁Wallace	-11.1049
▁Dame	-11.1051
PR	-11.1053
▁Take	-11.1053
▁Clarke	-11.1056
▁injured	-11.1056
▁Allied	-11.1057
▁coaching	-11.1061
▁Kol	-11.1063
▁moths	-11.1063
▁bound	-11.1065
▁Shore	-11.1066
▁phenomenon	-11.1068
▁patterns	-11.1069
▁says	-11.107
▁Kenneth	-11.1074
▁Iceland	-11.1076
II	-11.1076
▁Tanzania	-11.1077
▁Xi	-11.1078
▁bacteria	-11.108
hua	-11.1082
TS	-11.1082
▁planet	-11.1082
Ho	-11.1083
▁clock	-11.1083
▁Complex	-11.1086
▁initiative	-11.1091
▁rarely	-11.1096
▁duty	-11.1097
▁restoration	-11.1098
▁appeal	-11.1098
▁remainder	-11.11
lt	-11.1101
CA	-11.1104
ě	-11.1104
rak	-11.1106
▁tube	-11.1107
▁save	-11.1108
▁Greg	-11.1108
▁sample	-11.1118
▁Albania	-11.1118
▁Jar	-11.112
▁delivery	-11.112
▁altitude	-11.112
▁Friends	-11.1125
▁sprint	-11.1126
▁Vale	-11.1128
▁shrub	-11.1129
▁Metal	-11.1131
▁PA	-11.1135
▁sweet	-11.1136
▁landmark	-11.1138
▁Ir	-11.114
▁Murphy	-11.114
▁trio	-11.1142
▁relating	-11.1146
▁daughters	-11.1146
▁donated	-11.1152
nen	-11.1153
▁Palestinian	-11.1156
▁debt	-11.1157
▁Established	-11.1158
▁orbit	-11.1162
▁Capitol	-11.1164
▁Around	-11.1165
making	-11.1165
pping	-11.1166
▁UCI	-11.117
▁Tha	-11.117
▁0)	-11.1171
▁exhibited	-11.1172
▁farming	-11.1173
▁astronomer	-11.1176
hai	-11.1176
▁cat	-11.1179
▁Bobby	-11.1179
▁hunting	-11.1188
▁felt	-11.119
▁ru	-11.1191
β	-11.1191
▁sta	-11.1191
▁0000-00,	-11.1193
▁vertical	-11.1194
▁Giovanni	-11.1194
▁veteran	-11.1194
▁lecturer	-11.1195
play	-11.1196
▁employment	-11.1198
▁ne	-11.12
▁Greatest	-11.12
▁colleges	-11.1203
▁gradually	-11.1207
▁LLC	-11.121
▁hills	-11.1213
▁Bang	-11.1214
▁Track	-11.1214
take	-11.1215
▁faith	-11.1216
▁IBM	-11.1217
▁Desert	-11.1218
▁HD	-11.122
▁desert	-11.1221
▁substantial	-11.1224
▁victories	-11.1224
vert	-11.1226
HS	-11.1226
▁cycling	-11.1232
▁seek	-11.1232
Ireland	-11.1234
PP	-11.1236
▁guide	-11.1236
Mu	-11.124
▁missile	-11.1243
▁Stein	-11.1248
▁Counties	-11.1249
made	-11.125
▁NHL	-11.1255
ان	-11.1255
▁compositions	-11.1257
▁limits	-11.1258
▁Miguel	-11.126
▁Admiral	-11.1262
▁ATP	-11.1263
▁favor	-11.1264
▁surgeon	-11.1267
itis	-11.1276
▁Lip	-11.1277
▁exact	-11.1277
σ	-11.1281
▁Bir	-11.1284
▁Maurice	-11.1284
▁comune	-11.1284
▁random	-11.1286
▁u	-11.1287
▁Mine	-11.1287
ро	-11.1289
▁elsewhere	-11.1291
▁Bach	-11.1291
▁Morning	-11.1292
▁Ei	-11.1292
▁arrangement	-11.1293
mate	-11.1294
▁Record	-11.1296
▁Bass	-11.1296
ābād	-11.1297
▁María	-11.1298
▁questions	-11.1298
unt	-11.1299
▁fossil	-11.1299
▁Lab	-11.1305
tone	-11.1307
▁Tree	-11.1309
▁saying	-11.1311
▁twentieth	-11.1312
Polish	-11.1313
▁OS	-11.1314
een	-11.1316
los	-11.132
RT	-11.1322
▁reaches	-11.1322
AA	-11.1323
▁shift	-11.1323
rel	-11.1325
sti	-11.1325
▁Pet	-11.1327
▁Lind	-11.1328
▁Ruth	-11.1332
ID	-11.1333
▁tallest	-11.1336
▁rated	-11.1336
▁ill	-11.1338
nch	-11.1339
▁your	-11.1341
▁Rain	-11.1344
▁bringing	-11.1346
sion	-11.1347
▁Economics	-11.135
▁Cre	-11.1353
iro	-11.1354
▁copper	-11.1354
▁Strait	-11.1355
▁guns	-11.1356
IN	-11.1366
▁moral	-11.1367
▁missing	-11.1367
▁input	-11.137
sie	-11.1371
vid	-11.1372
▁regulations	-11.1374
▁chemist	-11.1375
▁gap	-11.1377
▁Bengali	-11.1378
▁heads	-11.1378
para	-11.1379
▁clay	-11.1384
enburg	-11.1384
▁indicates	-11.1388
▁Newfoundland	-11.1388
▁Andhra	-11.1388
▁Westminster	-11.1389
rai	-11.139
▁NY	-11.1392
card	-11.1394
▁eligible	-11.1394
▁varieties	-11.1394
▁Heights	-11.1395
▁MA	-11.1395
▁Mrs	-11.1396
▁cash	-11.1398
▁tip	-11.14
▁practical	-11.1401
▁sponsorship	-11.1401
ably	-11.1402
ér	-11.1403
▁Publishing	-11.1407
▁variations	-11.1407
▁00.00%	-11.1408
▁Bai	-11.1408
hon	-11.1409
!"	-11.1413
vas	-11.1415
▁parks	-11.1416
▁Fish	-11.1417
▁essential	-11.1418
▁massive	-11.1422
▁Petr	-11.1425
▁.000	-11.143
▁ho	-11.143
▁Gene	-11.1432
▁Presbyterian	-11.1433
▁Nor	-11.1433
▁partners	-11.1435
▁sits	-11.1437
▁prototype	-11.1438
▁survive	-11.1439
▁manuscript	-11.1442
▁worn	-11.1444
▁Eddie	-11.1444
pit	-11.1444
▁Antarctic	-11.1446
▁Hai	-11.1448
▁pole	-11.145
ère	-11.1454
Sa	-11.1456
▁criticized	-11.1459
eus	-11.1461
▁Krishna	-11.1462
-000)	-11.1465
▁Oakland	-11.1465
ι	-11.1466
▁membrane	-11.1468
▁enjoyed	-11.1469
▁deals	-11.1471
▁Luke	-11.1472
▁eponymous	-11.1475
▁Ran	-11.1478
▁benefits	-11.1479
▁Gardens	-11.1484
▁Hero	-11.1491
▁am	-11.1491
▁Zen	-11.1493
▁Ahmed	-11.1493
▁prolific	-11.1493
gas	-11.1495
▁Syrian	-11.1497
▁Reform	-11.1498
▁powered	-11.1499
Portuguese	-11.1499
ija	-11.15
▁Seoul	-11.15
jar	-11.1501
▁streaming	-11.1502
?"	-11.1504
igan	-11.1504
▁bordered	-11.1506
▁Released	-11.1507
▁А	-11.1508
▁Cher	-11.1509
LC	-11.1511
▁Allan	-11.1521
▁progress	-11.1525
▁Jose	-11.1526
▁Ul	-11.1527
▁forty	-11.1529
▁signature	-11.1531
mas	-11.1532
rant	-11.1534
cht	-11.1538
▁campaigns	-11.1543
▁destination	-11.1543
▁Phillips	-11.1545
NS	-11.1547
γ	-11.1549
▁pain	-11.1549
▁endangered	-11.1549
▁gardens	-11.155
▁Tennis	-11.155
▁closure	-11.1552
▁shops	-11.1554
▁Das	-11.1561
▁alcohol	-11.1564
▁cha	-11.1567
▁Mann	-11.1567
▁sort	-11.1569
▁Critics	-11.1571
▁settlements	-11.1572
uta	-11.1572
ome	-11.1572
▁psychological	-11.1574
▁suburbs	-11.158
▁unlike	-11.158
▁Confederation	-11.158
▁programmes	-11.1582
AL	-11.1583
▁Mega	-11.1583
▁Bond	-11.1585
piece	-11.1585
▁universe	-11.1587
▁cu	-11.1589
▁Cast	-11.1589
▁Having	-11.1591
▁patron	-11.1594
▁express	-11.1594
▁angle	-11.1598
▁CA	-11.1599
▁Suffolk	-11.1599
▁assault	-11.16
▁missionary	-11.1602
bul	-11.1602
▁interested	-11.1605
▁Ry	-11.1605
山	-11.1606
▁writes	-11.1607
▁Kra	-11.1607
nin	-11.1612
▁bear	-11.1612
▁destruction	-11.1612
田	-11.1612
tle	-11.1615
▁photographs	-11.1616
▁nationwide	-11.1618
▁Operations	-11.1618
num	-11.1619
▁interaction	-11.1621
▁ferry	-11.1625
My	-11.1629
▁Net	-11.163
SD	-11.1631
▁occurring	-11.1632
▁sentence	-11.1638
▁mystery	-11.1643
▁afterwards	-11.1645
onic	-11.1645
▁computing	-11.1647
▁simultaneously	-11.1651
▁mosque	-11.1656
د	-11.1659
oy	-11.1664
▁App	-11.1665
ged	-11.1666
▁eleventh	-11.1667
Hungarian	-11.1669
▁Moh	-11.1669
▁arc	-11.167
▁register	-11.1671
▁maintains	-11.1673
▁Chess	-11.1675
▁Settlement	-11.1675
ight	-11.1676
▁Eagle	-11.1678
ao	-11.1679
▁exclusive	-11.168
▁magnetic	-11.1682
tom	-11.1683
▁Kid	-11.1683
▁try	-11.1684
▁hindwings	-11.1685
DS	-11.1689
anda	-11.1689
▁Even	-11.1691
▁listings	-11.1694
▁Brussels	-11.1694
▁Istanbul	-11.1694
▁neighboring	-11.1697
ри	-11.1699
▁artwork	-11.17
▁bicycle	-11.17
ular	-11.17
▁reduction	-11.1701
pra	-11.1702
▁cultures	-11.1703
▁nationally	-11.1704
▁ITV	-11.1705
▁0-0.	-11.1705
▁victims	-11.1706
▁Legislature	-11.1706
▁opportunities	-11.1706
▁displayed	-11.1707
▁citizen	-11.1707
▁provider	-11.1709
▁spending	-11.1709
speed	-11.1715
▁Maj	-11.1716
▁ban	-11.1716
▁Justin	-11.1717
asi	-11.1718
▁widow	-11.1719
uda	-11.1726
ب	-11.1728
▁Train	-11.1729
▁reflect	-11.1729
▁immediate	-11.1732
AS	-11.1733
tail	-11.1733
▁alleged	-11.1734
▁females	-11.1735
▁Saxony	-11.1737
▁gauge	-11.1741
text	-11.1742
▁siege	-11.1745
Po	-11.1747
cc	-11.175
▁matters	-11.1751
▁Canyon	-11.1751
▁(0000-00)	-11.1753
λ	-11.1753
ante	-11.1757
night	-11.1757
▁Qui	-11.1757
▁tend	-11.1759
▁Bryan	-11.176
▁Blake	-11.176
▁Dev	-11.1761
▁concerned	-11.1761
▁saint	-11.1762
▁remix	-11.1762
▁learned	-11.1762
▁banned	-11.1764
▁illness	-11.1766
▁Price	-11.1767
▁Hat	-11.1768
▁Care	-11.177
▁Laboratory	-11.177
▁Spencer	-11.1771
ock	-11.1773
bon	-11.1774
▁RAF	-11.1779
▁tours	-11.178
▁canal	-11.178
Vi	-11.1782
▁bone	-11.1786
â	-11.1786
ʻ	-11.1789
▁absence	-11.1789
▁fifty	-11.1789
▁worth	-11.1796
▁Lil	-11.1796
▁accept	-11.1796
▁spelling	-11.1802
▁Eli	-11.1802
▁Janeiro	-11.1803
▁lock	-11.1805
▁crimes	-11.1807
▁equation	-11.1813
apa	-11.1814
▁conclusion	-11.1815
▁Edwards	-11.1816
▁finals	-11.1817
▁Page	-11.1821
running	-11.1821
▁Kazakhstan	-11.1823
▁dispute	-11.1824
▁Ō	-11.1826
▁craft	-11.1826
then	-11.1826
▁voters	-11.1827
▁pages	-11.1827
▁historians	-11.1827
▁entity	-11.1828
ast	-11.1829
▁extending	-11.1832
hor	-11.1832
▁freight	-11.1834
▁hydro	-11.1837
▁attraction	-11.1837
▁(00.00	-11.1838
gger	-11.1839
▁academy	-11.184
▁wildlife	-11.1841
pul	-11.1841
rian	-11.1844
▁UNESCO	-11.1847
▁balance	-11.1848
▁arrest	-11.1849
hir	-11.1852
gre	-11.1852
weight	-11.1853
▁(/	-11.1857
▁Clo	-11.1858
の	-11.186
▁intermediate	-11.186
▁bright	-11.186
▁Bul	-11.1862
eck	-11.1863
▁printing	-11.1863
▁Eugene	-11.1864
▁Nacional	-11.1866
▁Section	-11.1867
▁Roberts	-11.1868
▁false	-11.1869
first	-11.1869
meter	-11.187
▁constellation	-11.1873
▁Liberation	-11.1873
table	-11.1876
iko	-11.1877
▁Box	-11.1878
▁message	-11.1879
tsu	-11.1882
▁Algeria	-11.1883
▁Transit	-11.1887
▁automatic	-11.1891
▁clean	-11.1892
▁banner	-11.1893
▁beating	-11.1894
▁electro	-11.1896
▁throw	-11.1897
▁Distinguished	-11.1898
▁Monument	-11.1898
▁elevated	-11.1899
link	-11.1899
lyn	-11.19
μ	-11.1902
▁Ever	-11.1904
▁Hughes	-11.1906
▁Cur	-11.1909
tas	-11.1911
Fi	-11.1914
▁winger	-11.1917
▁seems	-11.1917
▁belt	-11.1917
OC	-11.1918
▁revolution	-11.1918
Ga	-11.1921
ET	-11.1924
▁array	-11.1925
ʊ	-11.1926
▁Malta	-11.1927
▁Lankan	-11.1929
▁Bun	-11.193
▁spirit	-11.193
▁circulation	-11.1931
rn	-11.1932
▁Av	-11.1933
▁Sudan	-11.1941
▁Sul	-11.1943
sub	-11.1944
▁begun	-11.1947
▁Trump	-11.1948
▁Ahmad	-11.1949
left	-11.1952
▁departments	-11.1955
zar	-11.1955
▁Canterbury	-11.1957
▁bachelor	-11.1957
▁streak	-11.1957
▁trying	-11.1957
fra	-11.1962
▁asteroid	-11.1964
▁Foster	-11.1964
▁disaster	-11.1965
▁depicts	-11.1966
▁Af	-11.1966
▁ideal	-11.1968
▁traded	-11.1969
▁want	-11.1975
metre	-11.1976
▁opportunity	-11.1976
Car	-11.1981
▁Ara	-11.1983
▁depicted	-11.1986
cap	-11.1988
gia	-11.1989
▁Ethiopia	-11.1996
▁sharing	-11.2
▁Dia	-11.2002
▁reporting	-11.2003
▁adding	-11.2004
▁slave	-11.2004
▁Icelandic	-11.2008
▁concepts	-11.2008
▁custom	-11.2009
▁preceded	-11.201
▁waste	-11.2013
▁exhibitions	-11.2015
▁fourteen	-11.2018
▁Dol	-11.2018
▁Princeton	-11.202
▁Wan	-11.202
▁verse	-11.2021
▁apply	-11.2023
▁prisoners	-11.2024
▁EU	-11.2024
▁Index	-11.2027
▁nearest	-11.2028
vik	-11.2029
▁Higher	-11.203
▁Helsinki	-11.2035
▁Laura	-11.2035
▁earthquake	-11.2037
▁Cad	-11.2038
▁die	-11.2041
▁decorated	-11.2043
▁uniform	-11.2043
▁doctorate	-11.2044
power	-11.2044
▁Next	-11.2046
▁Fiction	-11.2047
▁closing	-11.2048
▁injuries	-11.2048
bb	-11.2049
For	-11.2053
▁Mobile	-11.2054
▁twelfth	-11.2055
ox	-11.2055
gui	-11.2057
▁Pier	-11.2061
▁minute	-11.2062
ğ	-11.2063
pel	-11.2066
▁weak	-11.2068
▁pit	-11.2071
▁tribute	-11.2072
▁competitors	-11.2073
anta	-11.2074
▁conversion	-11.2075
▁Stakes	-11.2075
▁trials	-11.2075
▁labour	-11.2075
▁Edition	-11.2077
pper	-11.208
▁Calgary	-11.2081
▁Rud	-11.2081
▁Manila	-11.2082
▁profession	-11.2082
BA	-11.2084
body	-11.2085
▁Cameron	-11.2088
▁Ship	-11.2089
ere	-11.2091
▁Brad	-11.2092
ean	-11.2095
▁Bed	-11.2096
▁Spa	-11.2098
▁Kingston	-11.2099
ла	-11.2099
▁patent	-11.2101
▁venues	-11.2102
▁CO	-11.2105
▁rejected	-11.2105
▁Cla	-11.2107
村	-11.2107
high	-11.211
mur	-11.211
largest	-11.2112
▁crowned	-11.2113
ô	-11.2114
▁Parliamentary	-11.2114
▁artillery	-11.2114
▁easy	-11.2114
▁reception	-11.2115
▁Gram	-11.2122
▁Kate	-11.2123
inter	-11.2123
▁Fin	-11.2124
▁belief	-11.2124
▁gross	-11.2129
uka	-11.2132
▁Edgar	-11.2133
▁Throughout	-11.2135
▁graphics	-11.2135
▁interviews	-11.2137
▁judges	-11.2138
▁Sex	-11.214
▁Forum	-11.214
ML	-11.2142
▁Pont	-11.2142
▁matrix	-11.2145
▁stress	-11.2147
hole	-11.2151
▁Bil	-11.2151
▁window	-11.2153
▁challenge	-11.2153
▁Reed	-11.2154
film	-11.2155
▁Swa	-11.2155
▁Fernando	-11.2155
▁neighbouring	-11.2156
▁disk	-11.2156
▁Todd	-11.2157
CE	-11.2158
▁struggle	-11.2162
▁drum	-11.2165
▁governed	-11.2165
▁sin	-11.2165
▁Tampa	-11.2166
eth	-11.2167
▁expensive	-11.2167
sz	-11.2169
All	-11.217
▁threat	-11.2173
▁settlers	-11.2177
▁ب	-11.2178
ient	-11.2179
▁Right	-11.2179
▁Gau	-11.218
▁equipped	-11.2181
▁immigrants	-11.2181
▁cave	-11.2184
▁listing	-11.2185
▁opinion	-11.2185
evich	-11.219
mia	-11.2192
new	-11.2192
zz	-11.2194
▁weekend	-11.2196
▁Environmental	-11.2196
▁Edmonton	-11.22
▁Bis	-11.2206
▁namely	-11.2207
▁Campaign	-11.2207
▁ordained	-11.2207
▁View	-11.2208
大	-11.221
Dutch	-11.221
▁manufacturers	-11.2211
▁Ober	-11.2212
▁Got	-11.2213
▁burial	-11.2214
borough	-11.2217
jin	-11.2219
▁Muslims	-11.2219
▁coined	-11.2223
▁relevant	-11.2224
owski	-11.2224
▁procedure	-11.2226
▁accredited	-11.2226
▁MC	-11.2227
rot	-11.2228
▁flagship	-11.2228
▁smallest	-11.2228
▁till	-11.2228
▁speaking	-11.2229
▁mail	-11.2233
▁Ludwig	-11.2234
▁backing	-11.2234
▁check	-11.2234
ath	-11.2235
▁0/0	-11.2236
▁symptoms	-11.2236
▁Commerce	-11.2237
▁centered	-11.2239
▁placing	-11.224
lip	-11.2241
▁$0	-11.2244
▁Ferdinand	-11.2247
▁supplies	-11.2247
▁Leslie	-11.2247
▁wire	-11.2249
▁Secondary	-11.2252
▁Gate	-11.2253
▁Sai	-11.2253
▁steep	-11.2254
▁connect	-11.2254
▁zero	-11.2259
▁Kom	-11.2259
▁Rhine	-11.2259
ct	-11.2261
▁oxygen	-11.2261
ction	-11.2262
▁Lyon	-11.2262
▁concern	-11.2263
▁ال	-11.2267
▁bit	-11.2269
▁0°00′00′′	-11.2269
▁tea	-11.227
▁Salvador	-11.2276
ddy	-11.2277
▁writings	-11.228
south	-11.228
▁suitable	-11.2282
▁Vel	-11.2285
▁Queens	-11.2285
▁chapters	-11.2286
▁crosses	-11.2288
▁Curtis	-11.2288
▁Pir	-11.229
NC	-11.2291
▁Pink	-11.2292
▁Kannada	-11.2294
▁describing	-11.2301
▁Cru	-11.2303
elo	-11.2304
ür	-11.2306
▁explorer	-11.2308
▁sixteen	-11.2309
▁Indians	-11.2311
▁Lar	-11.2312
rac	-11.2312
▁Associate	-11.2313
WA	-11.2313
▁radiation	-11.2314
▁occasion	-11.2316
▁Netflix	-11.2321
▁Bart	-11.2322
▁brands	-11.2325
aux	-11.2327
▁Gol	-11.2327
▁Fat	-11.2327
▁Memphis	-11.2328
▁Statistics	-11.2328
▁Adrian	-11.233
chu	-11.2334
▁nonprofit	-11.2334
▁Sant	-11.2335
▁feminist	-11.2337
▁elite	-11.2337
nagar	-11.2339
▁Fil	-11.234
▁bat	-11.2345
▁Bears	-11.2346
▁Aboriginal	-11.2348
▁preserve	-11.2349
▁Colonial	-11.2349
▁tape	-11.2349
▁Cave	-11.235
▁rescue	-11.2352
ли	-11.2353
atic	-11.2357
▁signing	-11.2358
▁Rush	-11.236
▁maps	-11.2361
▁resource	-11.2365
idi	-11.2372
▁understand	-11.2372
▁Institution	-11.2374
▁note	-11.2374
▁dubbed	-11.2374
▁Vir	-11.2375
▁hub	-11.2378
▁driven	-11.238
▁Guild	-11.2382
▁particles	-11.2383
▁Fre	-11.2384
▁Macedonia	-11.2386
mmer	-11.2388
page	-11.239
ù	-11.239
▁Cass	-11.2391
▁SR	-11.2393
▁hurricane	-11.2395
▁Population	-11.2396
▁wealthy	-11.2397
GS	-11.2397
▁Pad	-11.24
▁connections	-11.2402
▁André	-11.2403
rea	-11.2406
sko	-11.2408
▁anthology	-11.2409
▁eyes	-11.2409
ote	-11.241
tai	-11.2413
▁Flight	-11.2416
▁Downtown	-11.2417
▁Lau	-11.2418
▁Comp	-11.2419
▁Santo	-11.2421
▁virus	-11.2421
▁Ama	-11.2422
▁lineup	-11.2423
▁Palmer	-11.2424
▁shipping	-11.2425
▁Ek	-11.2426
▁RNA	-11.2428
▁gallery	-11.2429
▁stopped	-11.243
tr	-11.2431
inger	-11.2431
▁critically	-11.2432
oku	-11.2433
▁Viscount	-11.2436
▁commenced	-11.2437
enne	-11.2438
▁Syn	-11.2441
▁neuro	-11.2441
▁conjunction	-11.2443
EA	-11.2443
▁interpretation	-11.2443
▁household	-11.2444
▁releasing	-11.2447
oda	-11.2448
▁Broad	-11.2453
▁hydrogen	-11.2457
▁diesel	-11.2457
▁aerial	-11.2458
▁suit	-11.2459
▁facing	-11.2459
▁Len	-11.2459
▁Sat	-11.2459
ule	-11.2461
oriented	-11.2461
▁mounted	-11.2467
▁worker	-11.2467
court	-11.2468
▁detective	-11.2471
aff	-11.2471
eno	-11.2471
ك	-11.2472
▁Armenia	-11.2474
▁fit	-11.2476
ios	-11.2481
wheel	-11.2482
▁Cardiff	-11.2484
▁Danny	-11.2487
IM	-11.2487
θ	-11.2489
▁beautiful	-11.2489
ening	-11.249
▁Advanced	-11.249
▁suburban	-11.249
▁bowl	-11.2492
rite	-11.2493
ters	-11.2495
▁Harbor	-11.2496
▁manage	-11.2497
ç	-11.2498
kon	-11.2501
2.	-11.2502
iaceae	-11.2506
CS	-11.2508
▁performs	-11.2509
▁inhabited	-11.2509
τ	-11.2509
▁allies	-11.2511
▁objective	-11.2511
▁Linux	-11.2512
▁generations	-11.2512
▁initiated	-11.2514
▁Davies	-11.2515
sberg	-11.2517
ske	-11.2518
▁ballet	-11.2519
▁documented	-11.2522
▁finding	-11.2523
▁universal	-11.2523
▁rower	-11.2523
▁Environment	-11.2524
▁drivers	-11.2525
▁Gospel	-11.2525
▁Ted	-11.2528
▁Rican	-11.253
▁ver	-11.253
▁cheese	-11.2532
lecommunications	-11.2533
▁usual	-11.2533
▁consumption	-11.2539
▁Iraqi	-11.254
▁Walt	-11.2541
▁Thor	-11.2541
sam	-11.2542
▁segments	-11.2542
▁references	-11.2542
DP	-11.2545
▁Mala	-11.2545
cra	-11.2551
▁finite	-11.2552
▁Woods	-11.2557
▁Fur	-11.256
▁Ble	-11.2561
cast	-11.2561
▁bowler	-11.2562
▁expand	-11.2565
lag	-11.2566
▁insects	-11.2567
і	-11.2571
▁Than	-11.2572
ο	-11.2573
▁wickets	-11.2573
▁circumstances	-11.2573
rag	-11.2574
▁farmers	-11.258
▁bull	-11.258
team	-11.2582
▁argued	-11.2584
cott	-11.2584
gam	-11.2586
ò	-11.2587
▁struck	-11.2587
▁scandal	-11.2588
▁Heath	-11.2589
EL	-11.2591
▁Hugo	-11.2592
▁Tracks	-11.2592
▁Bee	-11.2596
▁coat	-11.2599
▁sang	-11.26
vil	-11.2601
TE	-11.2603
▁Apollo	-11.2604
▁ticket	-11.2607
▁Harbour	-11.2608
▁FRS	-11.261
▁Double	-11.2612
▁export	-11.2613
▁Report	-11.2614
▁Gul	-11.2615
vet	-11.2621
▁Copa	-11.2626
▁Ai	-11.2629
▁wings	-11.2633
▁fungi	-11.2633
ы	-11.2638
▁warm	-11.2638
▁Silva	-11.2642
▁synthesis	-11.2643
▁Sean	-11.2644
MI	-11.2647
ו	-11.265
Te	-11.2654
▁beetles	-11.2655
PI	-11.2656
▁Winnipeg	-11.2657
▁belong	-11.2657
kawa	-11.2659
▁windows	-11.2659
▁Rolling	-11.266
das	-11.2661
ί	-11.2661
Don	-11.2662
▁vector	-11.2663
▁Popular	-11.2664
▁golden	-11.2664
▁playoff	-11.2668
▁protests	-11.2668
▁exile	-11.267
▁revolutionary	-11.2671
▁add	-11.2673
▁Sk	-11.2677
HA	-11.2679
▁updated	-11.2683
▁Never	-11.2683
SO	-11.2684
▁Erik	-11.2689
▁client	-11.2691
▁terrestrial	-11.2692
▁Watson	-11.2693
▁Met	-11.2694
stown	-11.2694
▁airline	-11.2698
▁cream	-11.2698
▁geo	-11.27
udi	-11.2701
present	-11.2701
▁coaches	-11.2702
real	-11.2704
▁achievements	-11.2707
▁Kas	-11.2716
▁Clay	-11.2719
▁Arctic	-11.2722
▁recreational	-11.2722
▁Geneva	-11.2724
▁loosely	-11.2724
▁sporting	-11.2724
▁door	-11.2725
▁Lucas	-11.2725
▁Still	-11.2727
▁Pic	-11.2727
▁Roosevelt	-11.2727
▁rocks	-11.2733
insky	-11.2736
▁span	-11.2738
sted	-11.2739
IL	-11.274
▁awareness	-11.2741
after	-11.2745
PL	-11.2746
▁Naples	-11.2748
borg	-11.2748
▁holiday	-11.2748
▁bearing	-11.275
▁Private	-11.2751
▁Masa	-11.2751
FI	-11.2752
ör	-11.2753
▁Alt	-11.2754
▁ride	-11.2757
isa	-11.2758
▁abstract	-11.2758
▁Written	-11.2762
▁dialogue	-11.2762
▁Voice	-11.2764
▁bridges	-11.2768
▁healthcare	-11.2769
▁flies	-11.277
▁lie	-11.2771
▁Xbox	-11.2771
▁watch	-11.2773
pid	-11.2774
▁laboratory	-11.2776
س	-11.2777
▁CB	-11.2777
person	-11.2779
▁wealth	-11.2781
▁sight	-11.2783
▁bond	-11.2783
/0	-11.2783
▁molecules	-11.2784
▁Tommy	-11.2785
▁handled	-11.2786
▁Pete	-11.2786
▁Fraser	-11.2791
▁Mario	-11.2791
▁epic	-11.2792
▁therapy	-11.2795
▁seeds	-11.2796
▁send	-11.2798
▁cooperation	-11.2798
only	-11.2799
▁Nobel	-11.2802
▁intention	-11.2803
▁Block	-11.2804
post	-11.2806
▁Colin	-11.2809
sten	-11.2809
▁preservation	-11.2811
▁va	-11.2812
▁streams	-11.2813
▁moderate	-11.2814
ographic	-11.2816
▁legendary	-11.2816
▁rocket	-11.2817
▁Sc	-11.282
▁Geo	-11.2821
▁dealing	-11.2822
tation	-11.2823
kes	-11.2829
▁Negro	-11.2831
▁dramatic	-11.2831
final	-11.2832
▁Bihar	-11.2833
▁looking	-11.2834
▁Bennett	-11.2834
▁geographical	-11.2838
▁integral	-11.284
▁signals	-11.2841
▁senator	-11.2842
ρ	-11.2843
▁Too	-11.2847
▁Belfast	-11.2847
ER	-11.285
rry	-11.2852
▁Holmes	-11.2854
▁Android	-11.2854
▁turning	-11.2854
pol	-11.2855
▁Din	-11.286
▁suffering	-11.286
▁drew	-11.2861
▁Hits	-11.2863
hard	-11.2867
▁NASCAR	-11.2868
alo	-11.2869
▁defunct	-11.287
▁Writers	-11.2874
▁screened	-11.2874
▁Nordic	-11.2876
▁engagement	-11.2878
▁Chase	-11.288
eu	-11.288
▁fled	-11.288
▁affect	-11.2882
▁exposure	-11.2882
▁probability	-11.2882
▁disciplines	-11.2884
RI	-11.2886
▁wa	-11.2887
ovsky	-11.2888
oides	-11.289
▁clients	-11.289
▁McC	-11.2892
▁Uruguay	-11.2892
tam	-11.2892
ME	-11.2893
▁favour	-11.2894
▁Eight	-11.2894
DF	-11.2895
▁pet	-11.2897
▁Sweet	-11.2897
▁Arm	-11.2903
four	-11.2903
▁Classical	-11.2904
▁radar	-11.2905
▁Shire	-11.2905
▁000,000...	-11.2906
▁decisions	-11.2907
cz	-11.2907
zel	-11.2908
▁Hopkins	-11.2911
▁choose	-11.2911
▁orchid	-11.2911
world	-11.2917
▁murdered	-11.2919
▁skier	-11.292
▁NASA	-11.292
thi	-11.2924
wald	-11.2926
Bulgarian	-11.2926
▁drop	-11.2926
▁breaking	-11.2927
▁Owen	-11.2928
00,	-11.2929
▁Tiger	-11.293
bha	-11.293
▁Gill	-11.293
▁Py	-11.2932
▁massacre	-11.2934
▁calling	-11.2935
sol	-11.2939
▁Newport	-11.294
▁IP	-11.2942
▁Shan	-11.2946
▁manufacture	-11.2948
aries	-11.2951
CI	-11.2952
RO	-11.2952
ح	-11.2954
▁ridge	-11.2954
▁pub	-11.2955
▁coordinates	-11.2955
▁Cox	-11.2956
▁Ave	-11.2956
▁Fuji	-11.2957
▁gone	-11.296
▁$0.0	-11.2961
gle	-11.2962
gent	-11.2963
▁meetings	-11.2964
Gu	-11.2969
AN	-11.2971
▁muscle	-11.2974
▁remove	-11.2974
▁jet	-11.2977
ovo	-11.298
▁Gay	-11.298
market	-11.2982
ides	-11.2987
▁Bert	-11.299
▁spectrum	-11.299
▁Eye	-11.299
▁fear	-11.2992
El	-11.2993
▁Era	-11.2993
▁installation	-11.2995
▁Rovers	-11.2997
▁VII	-11.2999
SM	-11.3
▁environments	-11.3001
nk	-11.3004
▁atmosphere	-11.3004
▁Sullivan	-11.3005
▁Marcus	-11.3011
▁CBE	-11.3013
▁Brother	-11.3013
▁apart	-11.3015
▁Deutsche	-11.3015
▁Hen	-11.3016
ée	-11.3016
▁skater	-11.3016
▁Kho	-11.3016
▁truck	-11.3017
▁doctrine	-11.3019
▁Competition	-11.3019
GA	-11.302
▁exploration	-11.3026
▁Rice	-11.3028
▁rhythm	-11.3028
gio	-11.3032
▁Case	-11.3035
▁Nat	-11.3035
▁Triple	-11.3039
tron	-11.304
▁Governorate	-11.304
är	-11.304
▁marathon	-11.304
▁Physics	-11.304
Turkish	-11.3042
▁Glass	-11.3043
▁Liu	-11.3043
▁columns	-11.3045
built	-11.3046
BS	-11.3046
▁Flying	-11.3051
▁assist	-11.3053
ground	-11.3054
▁congregation	-11.3054
▁empire	-11.3055
stead	-11.3055
country	-11.3057
▁authored	-11.3059
▁discipline	-11.3062
▁relegated	-11.3062
hang	-11.3062
ร	-11.3065
▁editorial	-11.3066
ffer	-11.3067
when	-11.3068
▁Dale	-11.307
pers	-11.307
▁mph	-11.307
ל	-11.307
▁caught	-11.3077
▁trilogy	-11.3077
▁happened	-11.3081
▁Cardinals	-11.3084
▁00-00,	-11.3087
rit	-11.3087
ни	-11.3088
▁us	-11.3089
▁facilitate	-11.309
-0)	-11.3092
▁nationalist	-11.3093
▁noise	-11.3093
Best	-11.3095
reviewed	-11.3095
▁Yellow	-11.3095
tech	-11.3095
▁holder	-11.3096
▁scales	-11.3098
une	-11.3099
qi	-11.31
bia	-11.3102
▁Sum	-11.3102
▁practiced	-11.3102
zhou	-11.3102
▁Buddhism	-11.3106
▁Fourth	-11.3106
ˌ	-11.3108
ა	-11.3109
▁defended	-11.3109
▁displays	-11.3111
▁fe	-11.3112
▁Corn	-11.3112
▁Musical	-11.3112
▁Plaza	-11.3114
▁Malay	-11.3115
▁thereafter	-11.3116
▁Knights	-11.3121
▁Claude	-11.3124
UN	-11.3125
▁س	-11.3125
▁Carlo	-11.3128
▁skating	-11.3128
▁XI	-11.3128
▁commissioner	-11.3131
▁Room	-11.3134
▁Heinrich	-11.3135
hana	-11.3136
▁suggest	-11.3136
▁Catalan	-11.3139
lea	-11.3142
dell	-11.3147
reg	-11.3148
▁Monroe	-11.315
▁Julius	-11.315
kra	-11.315
▁Pot	-11.3152
Bu	-11.3154
rm	-11.3154
▁BA	-11.3155
bell	-11.3157
▁Editor	-11.3157
mani	-11.3163
▁portfolio	-11.3164
▁arcade	-11.3165
▁OBE	-11.3166
า	-11.3166
cis	-11.3167
▁lowland	-11.3168
umi	-11.317
▁Know	-11.3171
▁goddess	-11.3172
lies	-11.3172
▁Adult	-11.3172
sse	-11.3174
▁Lynn	-11.3174
▁Budapest	-11.3174
▁Cannes	-11.3174
OP	-11.3176
▁celebrate	-11.3177
▁defend	-11.3178
▁exercise	-11.3178
▁performers	-11.3178
▁theologian	-11.3179
▁neither	-11.3179
▁Louisville	-11.3179
▁brigade	-11.3179
▁Pil	-11.3179
▁Rochester	-11.3179
▁pioneering	-11.3179
wall	-11.318
▁pupils	-11.318
▁Landmark	-11.3181
▁getting	-11.3181
▁GT	-11.3182
▁treat	-11.3183
▁hosting	-11.3186
▁ranges	-11.3186
▁quarterback	-11.3188
Swedish	-11.3189
ische	-11.319
▁slopes	-11.3191
cock	-11.3191
▁Marion	-11.3192
▁Ari	-11.3194
▁Yang	-11.3194
▁sailing	-11.3195
▁Reading	-11.3196
omi	-11.3198
▁Clement	-11.3198
▁tons	-11.3199
char	-11.32
▁IT	-11.3201
▁frog	-11.3203
▁Preston	-11.3206
dong	-11.3206
ð	-11.3209
▁0000.[	-11.321
▁battery	-11.3211
▁[0]	-11.3212
asa	-11.3213
▁palm	-11.3217
▁Pac	-11.3218
▁transformation	-11.3218
▁Sang	-11.3223
gro	-11.3225
▁Walk	-11.3225
▁Nancy	-11.3226
▁fired	-11.3228
▁wounded	-11.3228
▁trainer	-11.3229
▁AS	-11.3229
▁Palestine	-11.3231
ɨ	-11.3233
▁Lion	-11.3235
media	-11.3238
▁Armstrong	-11.3238
▁revived	-11.324
nov	-11.3243
▁Orlando	-11.3245
▁Industries	-11.3246
▁elementary	-11.3247
▁varies	-11.3247
pus	-11.3249
cen	-11.3251
▁jointly	-11.3252
shu	-11.3255
▁regulation	-11.3257
pri	-11.3258
▁Lie	-11.326
▁Duncan	-11.3261
▁waves	-11.3261
ain	-11.3264
ison	-11.3267
▁Om	-11.3267
▁behaviour	-11.3268
▁luxury	-11.3268
▁volcanic	-11.3268
▁rebellion	-11.3268
▁Beginning	-11.3268
▁Arc	-11.3268
▁Beau	-11.3268
▁protagonist	-11.327
▁qualification	-11.327
fr	-11.327
▁León	-11.327
▁journals	-11.3272
▁walking	-11.3272
rey	-11.3275
▁ordinary	-11.3275
▁Rally	-11.3277
ault	-11.328
aud	-11.328
▁pairs	-11.3281
▁load	-11.3282
▁repair	-11.3283
▁Northeast	-11.3283
roy	-11.3284
League	-11.3285
▁pi	-11.3286
osis	-11.3287
oz	-11.3287
▁centres	-11.3288
▁journalism	-11.3289
▁Mercury	-11.3297
▁advice	-11.3297
▁Aaron	-11.3298
org	-11.3298
▁repeated	-11.3299
lem	-11.33
▁Lor	-11.33
▁succession	-11.3301
ār	-11.3302
ame	-11.3302
ع	-11.3302
▁Lebanese	-11.3305
▁societies	-11.3305
▁slot	-11.3308
▁crowd	-11.3309
▁extend	-11.3309
ý	-11.3312
nai	-11.3312
▁eggs	-11.3313
lang	-11.3314
▁Georg	-11.3314
▁exposed	-11.3315
▁depression	-11.3316
▁assisted	-11.3316
▁collector	-11.3319
▁Electoral	-11.3321
▁fastest	-11.3321
▁00°	-11.3322
▁Southwest	-11.3323
ía	-11.3323
▁fossils	-11.3324
LD	-11.3325
▁error	-11.333
▁algebra	-11.3331
read	-11.3333
▁warfare	-11.3334
▁Windsor	-11.3335
his	-11.3336
ander	-11.3339
oro	-11.334
phy	-11.3341
▁recurring	-11.3342
ucci	-11.3343
▁Table	-11.3346
utter	-11.3347
▁Louise	-11.3351
▁renewed	-11.3352
ost	-11.3353
▁Change	-11.3353
▁Mos	-11.3361
▁revised	-11.3364
TP	-11.3366
▁Sheriff	-11.3366
▁flood	-11.3368
tine	-11.3369
elia	-11.337
▁Heaven	-11.337
▁inception	-11.3371
sport	-11.3373
▁operators	-11.3373
tens	-11.3373
▁Oil	-11.3374
▁heir	-11.3374
ops	-11.3376
▁ruins	-11.3378
lac	-11.338
▁seeking	-11.3382
▁violent	-11.3382
cas	-11.3385
▁shallow	-11.3387
▁vs	-11.3389
purpose	-11.3391
▁corruption	-11.3393
ssel	-11.3393
▁Lisa	-11.3395
hoe	-11.3395
▁breeding	-11.3397
tty	-11.3399
▁Glacier	-11.3402
▁Caroline	-11.3403
boy	-11.3403
▁Lakes	-11.3411
▁territorial	-11.3413
dri	-11.3413
▁Milton	-11.3414
ej	-11.3416
▁honors	-11.3418
▁assessment	-11.3418
▁coffee	-11.3424
▁Pala	-11.3425
▁reducing	-11.3425
▁installment	-11.3426
▁supporters	-11.3427
▁tele	-11.3427
tica	-11.343
▁profile	-11.3431
▁lizard	-11.3432
▁Fantasy	-11.3432
▁Bud	-11.3432
icus	-11.3433
hel	-11.3435
▁Brand	-11.3435
fire	-11.3438
▁specified	-11.344
▁socialist	-11.3441
▁imp	-11.3442
▁signs	-11.3447
▁Engineers	-11.3449
MT	-11.3453
▁Resources	-11.3453
ald	-11.3454
▁libraries	-11.3455
▁varied	-11.3455
One	-11.3456
ło	-11.3458
▁citizenship	-11.3463
^{	-11.3464
▁Moor	-11.3464
powered	-11.3467
▁Venezuelan	-11.3474
▁_{	-11.3476
▁certification	-11.3477
wn	-11.3478
PM	-11.348
CDP	-11.3481
ɛ	-11.3484
rem	-11.3485
▁Chad	-11.3491
▁constituent	-11.3492
▁Feature	-11.3493
▁Stories	-11.3493
▁recommended	-11.3496
kun	-11.3496
▁Mau	-11.3497
▁Mei	-11.3498
▁gate	-11.3498
smith	-11.3501
▁pitch	-11.3502
ș	-11.3503
EM	-11.3505
code	-11.3508
▁antenna	-11.3508
▁grammar	-11.3508
ego	-11.3509
▁closest	-11.351
▁Form	-11.351
▁Mile	-11.3511
▁Til	-11.3515
TM	-11.3516
Si	-11.3516
▁Finn	-11.3519
▁Br	-11.352
five	-11.3521
▁gymnast	-11.3523
▁utility	-11.3523
▁Hepburn	-11.3523
▁Players	-11.3523
▁spanning	-11.3523
▁ICAO	-11.3528
▁wedding	-11.3531
lets	-11.3533
▁Chin	-11.3535
▁Agricultural	-11.3538
France	-11.3543
▁Fiji	-11.3543
hood	-11.3545
▁Cou	-11.3546
▁deaths	-11.3546
bla	-11.3548
▁Alexandria	-11.3549
mé	-11.355
▁bell	-11.3551
▁ob	-11.3553
▁essentially	-11.3553
▁rises	-11.3553
▁Architecture	-11.3553
▁Rou	-11.3555
Love	-11.3556
▁deployed	-11.3556
▁continental	-11.3558
ulf	-11.3559
rom	-11.3559
tree	-11.3559
▁limestone	-11.3561
ista	-11.3562
▁Brighton	-11.3563
▁companion	-11.3564
▁racial	-11.3565
▁fusion	-11.3565
isch	-11.3569
▁Shar	-11.3571
▁mon	-11.3571
▁snake	-11.3571
▁Factory	-11.3574
▁Living	-11.3576
▁ties	-11.3576
▁Sil	-11.3577
lli	-11.3579
▁Ard	-11.358
▁hospitals	-11.3583
rap	-11.3584
front	-11.3587
▁Sign	-11.3588
▁files	-11.3588
▁Abd	-11.3588
OR	-11.3591
▁battles	-11.3591
Autonomous	-11.3591
▁Interior	-11.3591
source	-11.3591
uca	-11.3592
▁varying	-11.3596
ces	-11.3596
▁fuscous	-11.3597
▁Baden	-11.3598
▁Plain	-11.3598
clarification	-11.3599
▁psychologist	-11.3599
qa	-11.3599
▁Wade	-11.3601
▁disorders	-11.3605
▁answer	-11.3605
▁Yugoslav	-11.3605
▁Dy	-11.3608
▁Andrea	-11.361
▁mines	-11.3612
Bar	-11.3612
ess	-11.3612
cot	-11.3613
▁Cash	-11.3613
▁alphabet	-11.3614
▁Gerald	-11.3614
▁museums	-11.3615
▁Clan	-11.3617
0).	-11.3617
▁000°00′00′′	-11.3617
track	-11.3617
▁Andre	-11.3617
second	-11.3619
▁lifestyle	-11.3619
▁Taiwanese	-11.3623
▁mar	-11.3627
▁genes	-11.3627
▁praise	-11.3628
hurst	-11.363
▁cotton	-11.363
vat	-11.3631
▁lose	-11.3631
▁Tag	-11.3633
▁Sox	-11.3634
▁kill	-11.3635
zon	-11.3637
Th	-11.3637
▁pseudo	-11.3637
▁secular	-11.3638
fort	-11.3641
▁diversity	-11.3645
▁customer	-11.3648
assi	-11.3651
▁Guardian	-11.3652
East	-11.3657
▁experiment	-11.366
▁Crime	-11.3661
ß	-11.3664
▁Brooks	-11.3665
ugh	-11.3665
▁Come	-11.3666
group	-11.3666
▁Cameroon	-11.3666
ça	-11.3668
▁Hull	-11.3669
aku	-11.3669
▁Forbes	-11.367
▁Fr	-11.3671
▁tram	-11.3672
escu	-11.3675
▁Peruvian	-11.3676
▁opponent	-11.3677
▁ko	-11.3679
▁Baltic	-11.3683
ス	-11.3684
▁Cra	-11.3685
enko	-11.3687
▁ray	-11.3687
▁someone	-11.3689
tho	-11.3691
▁biography	-11.3692
▁Pay	-11.3693
▁Haute	-11.3695
▁legs	-11.3696
▁Joy	-11.3698
▁Ulster	-11.37
▁supplied	-11.3703
fen	-11.3704
▁Kosovo	-11.3707
▁shaped	-11.3713
▁deposits	-11.3715
▁specimens	-11.3715
▁moment	-11.3717
▁AP	-11.3719
▁Ant	-11.3719
▁Ghost	-11.3722
▁militia	-11.3722
▁Adolf	-11.3723
lik	-11.3729
▁kings	-11.3729
CL	-11.373
▁onwards	-11.3734
▁Campus	-11.3736
▁Oh	-11.3737
▁Edge	-11.3737
▁Speed	-11.3737
▁Philosophy	-11.3738
▁velocity	-11.3738
▁Coach	-11.3739
▁Chancellor	-11.374
▁Near	-11.374
▁Kei	-11.3744
▁Stevens	-11.3745
▁perfect	-11.3745
▁server	-11.3746
▁tackle	-11.3746
▁dismissed	-11.3748
▁earn	-11.3748
bass	-11.375
▁-00.00000	-11.3752
▁Guatemala	-11.3752
▁Chal	-11.3753
▁confluence	-11.3753
iga	-11.3756
▁purple	-11.3761
▁Folk	-11.3762
▁/ˈ	-11.3764
▁Multi	-11.3767
nit	-11.3768
▁Leone	-11.3769
▁Tun	-11.377
ith	-11.377
▁RCA	-11.3771
ttle	-11.3771
try	-11.3777
▁Sy	-11.378
▁protocol	-11.378
col	-11.3783
▁Kō	-11.3784
▁Tuesday	-11.3785
▁footage	-11.3786
rina	-11.3787
▁Edwin	-11.3787
path	-11.3789
▁Belle	-11.3791
xa	-11.3791
▁lord	-11.3793
often	-11.3793
▁shorter	-11.3797
▁Amy	-11.3798
▁pure	-11.38
َ	-11.38
▁timber	-11.38
▁sitting	-11.3801
▁Lam	-11.3803
▁Face	-11.3804
▁binding	-11.3804
▁Expedition	-11.3807
▁Gibson	-11.3808
▁Bradford	-11.3809
yon	-11.3809
▁involve	-11.381
▁Full	-11.381
NP	-11.3814
▁bears	-11.3815
▁grid	-11.3816
▁Students	-11.3818
mun	-11.382
▁integration	-11.382
▁Fun	-11.3821
▁shut	-11.3827
rated	-11.3829
▁Trinidad	-11.383
orum	-11.383
▁Principal	-11.383
π	-11.3831
oxy	-11.3831
▁resides	-11.3833
▁Ellis	-11.3834
▁approval	-11.3839
▁Rag	-11.3839
▁flash	-11.384
▁Tau	-11.3842
▁Row	-11.3843
▁Rey	-11.3846
駅	-11.3847
▁honored	-11.3848
▁Springfield	-11.3849
ê	-11.385
▁exhibit	-11.3851
ز	-11.3852
▁commentator	-11.3852
▁Estate	-11.3852
▁reissued	-11.3853
▁samples	-11.3856
▁paint	-11.3857
▁С	-11.386
}}}	-11.386
ف	-11.3864
▁Maritime	-11.3865
▁True	-11.3866
▁Andrews	-11.3866
▁essays	-11.3868
hem	-11.3869
VFL	-11.387
▁Carol	-11.3871
▁separation	-11.3871
shin	-11.3872
▁peoples	-11.3873
writer	-11.3873
▁Start	-11.3874
▁Color	-11.3877
▁mac	-11.3878
▁Watch	-11.3879
▁volunteer	-11.3881
▁Inn	-11.3886
▁accommodate	-11.3886
▁Dubai	-11.3889
▁Honda	-11.3891
▁manor	-11.3898
▁Dong	-11.39
Brien	-11.3901
▁reportedly	-11.3902
▁measurement	-11.3902
ement	-11.3902
stre	-11.3903
_{0}	-11.3904
dine	-11.3905
0.0	-11.3905
ign	-11.3907
▁pursue	-11.3909
▁Amb	-11.391
▁Legend	-11.3913
▁Herman	-11.3914
▁cent	-11.3914
▁Roth	-11.3915
▁Antarctica	-11.3915
rov	-11.3915
ط	-11.3918
▁Halifax	-11.3918
▁Spin	-11.3919
▁pink	-11.3924
SU	-11.3925
▁Pearl	-11.3926
▁coin	-11.3929
▁Via	-11.3932
ics	-11.3934
▁00.0000000°	-11.3934
uba	-11.3934
▁approaches	-11.3935
▁Foot	-11.3936
▁posthumously	-11.3937
▁promotional	-11.3939
▁comparison	-11.394
DR	-11.3942
▁Sicily	-11.3942
▁completing	-11.3942
▁Official	-11.3944
emia	-11.3947
▁why	-11.395
▁Deb	-11.395
▁originating	-11.3952
▁steps	-11.3957
▁lens	-11.3957
▁entities	-11.3958
▁Lancaster	-11.3958
▁copyright	-11.3958
▁closer	-11.3961
▁sha	-11.3962
▁logo	-11.3963
▁mechanics	-11.3966
▁exit	-11.3971
▁don	-11.3972
▁identification	-11.3974
ering	-11.3974
▁differential	-11.3975
▁IF	-11.3977
iff	-11.3979
▁Kiss	-11.398
bird	-11.3982
mos	-11.3985
▁Gla	-11.3987
▁collegiate	-11.399
bay	-11.3991
▁Path	-11.3993
aca	-11.3995
▁Screen	-11.3997
▁valuable	-11.3997
▁deemed	-11.3998
▁achievement	-11.3999
▁bike	-11.4003
▁conquest	-11.4006
▁presents	-11.4006
▁Mongolia	-11.4007
▁Sab	-11.4007
▁Sav	-11.401
▁Singer	-11.4011
▁Apart	-11.4012
▁banker	-11.4012
▁Thursday	-11.4013
▁attending	-11.4015
▁Ming	-11.4016
▁Artists	-11.4017
sex	-11.4019
Ch	-11.402
▁Kre	-11.4021
▁Wednesday	-11.4021
▁extant	-11.4022
▁Sebastian	-11.4023
▁Prison	-11.4023
mid	-11.4027
ко	-11.4028
▁referendum	-11.4029
▁fortress	-11.403
▁$000,000	-11.403
▁ratings	-11.403
iah	-11.4031
▁Johannes	-11.4031
cul	-11.4033
South	-11.4034
▁Fal	-11.4036
tun	-11.4037
▁Fork	-11.4038
▁gear	-11.4038
▁favorite	-11.404
▁combines	-11.4041
▁Sz	-11.4042
OL	-11.4043
bie	-11.4044
lick	-11.4044
▁popularly	-11.4046
onym	-11.4047
▁Yoshi	-11.4047
▁cartoon	-11.405
▁indicated	-11.4052
▁Primary	-11.4054
Am	-11.4057
▁Sanskrit	-11.4059
▁sheep	-11.4059
▁worst	-11.4061
▁Belgrade	-11.4062
kara	-11.4062
▁Generation	-11.4062
shima	-11.4063
▁Marcel	-11.4063
▁aspect	-11.4063
▁Burma	-11.4065
▁Link	-11.4065
▁Johan	-11.4067
ope	-11.4067
▁Bod	-11.4068
▁distinguish	-11.4068
ille	-11.4068
wrote	-11.4069
▁Jennifer	-11.4069
ashi	-11.407
bad	-11.4071
▁bases	-11.4072
▁Kurt	-11.4073
▁wet	-11.4074
▁abbreviation	-11.4074
▁Dom	-11.4076
▁seconds	-11.4078
▁Besides	-11.4078
Roman	-11.4079
▁Mono	-11.408
▁traveled	-11.4082
▁Bow	-11.4083
▁separately	-11.4084
▁Crawford	-11.4086
▁enrollment	-11.4086
Mi	-11.4086
▁Ó	-11.4088
▁AFC	-11.4089
MD	-11.409
cies	-11.4091
▁choir	-11.4094
IATA	-11.4095
▁mansion	-11.4095
▁Stoke	-11.4097
▁enzyme	-11.41
▁stick	-11.4102
lá	-11.4102
▁spots	-11.4103
ED	-11.4103
duc	-11.4104
▁meta	-11.4104
ude	-11.4109
keeper	-11.411
▁populations	-11.411
▁plates	-11.411
mura	-11.4111
▁corn	-11.4111
▁Made	-11.4112
▁Gy	-11.4112
▁challenges	-11.4113
space	-11.4116
tian	-11.4118
ż	-11.4118
▁Baroque	-11.4118
子	-11.4118
▁handle	-11.4118
▁Wai	-11.4121
▁defines	-11.4122
▁solely	-11.4122
▁Archdiocese	-11.4126
▁competitor	-11.4127
▁supposed	-11.4128
etic	-11.413
sim	-11.4134
▁guilty	-11.4135
▁enterprise	-11.4136
▁(000,000	-11.4136
▁(0000-00),	-11.4136
▁associations	-11.4136
▁Thames	-11.4141
sty	-11.4142
▁democratic	-11.4146
omo	-11.4147
▁Wonder	-11.4148
▁VIII	-11.4149
▁Mani	-11.4149
▁Frankfurt	-11.415
▁withdrew	-11.415
īn	-11.415
▁instruction	-11.4153
▁Americas	-11.4153
▁imprisoned	-11.4158
▁cor	-11.416
▁reverse	-11.416
▁Kad	-11.4166
▁filed	-11.4166
▁cavalry	-11.4166
▁intervention	-11.4166
ŋ	-11.4167
▁maintaining	-11.4168
▁suspension	-11.4174
▁Derbyshire	-11.4175
▁creek	-11.4175
morph	-11.4177
▁Ky	-11.4178
▁travels	-11.4179
▁Mali	-11.418
▁experiments	-11.4181
▁Pel	-11.4184
▁Manager	-11.4184
▁Miles	-11.4187
dd	-11.4187
ле	-11.4187
wide	-11.419
▁meets	-11.4191
▁collapse	-11.4198
▁buy	-11.4199
▁crossed	-11.4204
б	-11.4205
▁Cas	-11.4206
kɔ	-11.4207
▁Bha	-11.4209
▁sounds	-11.4211
▁Mara	-11.4212
site	-11.4212
▁Shadow	-11.4212
▁hearing	-11.4215
▁Emma	-11.4216
▁alpine	-11.4216
rine	-11.4216
bas	-11.4218
▁Trek	-11.4218
▁observation	-11.4219
▁picked	-11.4219
▁Maz	-11.422
Ja	-11.4223
▁boxing	-11.4224
▁Kap	-11.423
▁Male	-11.4231
▁removal	-11.4231
dle	-11.4232
▁shortened	-11.4234
▁package	-11.4236
jer	-11.4237
vent	-11.4237
▁Arn	-11.4237
ising	-11.4238
▁poverty	-11.424
▁Adventures	-11.424
▁differs	-11.4242
▁Logan	-11.4242
▁Sid	-11.4244
▁bad	-11.4244
▁reserves	-11.4244
▁thereby	-11.4245
▁lift	-11.4246
▁configuration	-11.4246
core	-11.4247
ę	-11.4248
▁destroyer	-11.4248
tain	-11.4249
ân	-11.425
▁Support	-11.4252
pic	-11.4252
▁none	-11.4256
▁Mohammad	-11.4256
▁employs	-11.4256
▁Those	-11.4257
▁Choice	-11.4257
▁prices	-11.4257
eria	-11.4258
▁switch	-11.4261
▁Warriors	-11.4265
footballer	-11.4273
▁geographic	-11.4275
▁coins	-11.4276
operative	-11.4276
▁Supporting	-11.4277
▁bush	-11.4278
▁option	-11.4282
▁Boris	-11.4283
▁trademark	-11.4284
▁tale	-11.4285
tric	-11.4286
shaw	-11.4287
TO	-11.4287
▁Lima	-11.4287
▁Where	-11.4288
া	-11.4288
▁nautical	-11.4289
▁desire	-11.4289
▁dynamic	-11.429
▁sharp	-11.4291
δ	-11.4292
▁Sing	-11.4295
Se	-11.4296
▁Latvia	-11.4297
▁apparently	-11.4297
▁ghost	-11.4297
▁attendance	-11.4298
▁blog	-11.4298
▁situations	-11.43
▁AG	-11.4303
▁Bend	-11.4305
▁Cumberland	-11.4305
▁Henderson	-11.4305
▁deck	-11.4309
▁Chemical	-11.431
▁LGBT	-11.4312
▁Castile	-11.4314
▁Santos	-11.4314
PD	-11.4316
khan	-11.4319
▁creates	-11.432
yam	-11.4321
▁Collegiate	-11.4322
ition	-11.4323
imo	-11.4326
hin	-11.4329
nder	-11.4329
▁organisms	-11.4329
rani	-11.433
▁Chapter	-11.4331
▁Dorset	-11.4333
▁Latvian	-11.4334
dha	-11.4334
She	-11.4336
▁circular	-11.4338
▁jurist	-11.4338
▁falling	-11.4338
▁McG	-11.4342
▁beliefs	-11.4342
ales	-11.4342
▁Highland	-11.4344
▁comp	-11.4344
▁nobleman	-11.4344
won	-11.4345
▁Amateur	-11.4346
▁Historically	-11.4347
▁generic	-11.4348
PO	-11.4349
Ko	-11.435
▁variables	-11.435
▁Enterprise	-11.4352
▁Crystal	-11.4353
▁sailor	-11.4355
▁maritime	-11.4355
IR	-11.4358
pot	-11.4359
▁secured	-11.4359
sea	-11.436
▁bulk	-11.4363
▁Dec	-11.4366
chal	-11.4367
▁naturally	-11.4369
sɛ	-11.437
▁Rajasthan	-11.4371
▁Adults	-11.4371
▁Burton	-11.4371
TF	-11.4373
▁receives	-11.4376
▁Gujarat	-11.4377
▁discussion	-11.4378
▁Indigenous	-11.4379
▁entries	-11.4379
▁monotypic	-11.438
▁Tibetan	-11.4382
▁Name	-11.4386
▁Insurance	-11.4388
▁emerging	-11.4388
▁Hum	-11.4391
▁faces	-11.4395
graph	-11.4398
▁switched	-11.4398
▁Qatar	-11.4399
▁import	-11.4402
▁Raw	-11.4403
▁temples	-11.4404
▁Aircraft	-11.4406
▁Kala	-11.4407
▁Half	-11.4408
/)	-11.4411
three	-11.4411
ár	-11.4412
▁currency	-11.4413
▁Annual	-11.4413
▁Toyota	-11.4413
▁Fellowship	-11.4414
▁Carroll	-11.4414
▁perceived	-11.4414
▁efficiency	-11.4417
▁Notre	-11.4418
▁Theodore	-11.4419
▁Lim	-11.4419
Jo	-11.4419
craft	-11.4421
▁colonies	-11.4421
▁neck	-11.4422
▁Sud	-11.4423
▁fa	-11.4426
▁campuses	-11.4426
▁Make	-11.4427
▁Rao	-11.4428
▁Instead	-11.4428
▁Tara	-11.4429
oke	-11.4431
▁stored	-11.4431
▁Aero	-11.4432
▁inscription	-11.4434
▁tract	-11.4435
fly	-11.444
▁differ	-11.444
▁SM	-11.4442
▁proof	-11.4446
▁Known	-11.4447
ре	-11.4448
▁HBO	-11.4448
▁gr	-11.445
▁Study	-11.445
▁Alpha	-11.4451
lid	-11.4451
▁Merc	-11.4452
▁Bergen	-11.4454
▁saxophonist	-11.4454
▁Weekly	-11.4455
general	-11.4457
▁Ras	-11.4459
▁efficient	-11.4459
kins	-11.4462
pect	-11.4462
)}	-11.4462
▁cardinal	-11.4463
▁sacred	-11.4463
HC	-11.4465
ode	-11.4467
▁violin	-11.4468
▁electronics	-11.4468
▁Reid	-11.4469
▁Shri	-11.4475
▁Norse	-11.4475
▁sheet	-11.4476
▁prisoner	-11.4477
▁registration	-11.4479
USA	-11.448
city	-11.4481
▁taste	-11.4482
▁Kids	-11.4482
▁racer	-11.4482
▁oak	-11.4482
▁Julia	-11.4483
ink	-11.4484
▁Simpson	-11.4484
On	-11.4484
▁Flag	-11.4485
▁MHz	-11.4488
ا	-11.4492
▁regard	-11.4494
▁spider	-11.4495
▁Plymouth	-11.4496
anus	-11.4498
▁Assam	-11.4502
▁Thunder	-11.4503
▁Luc	-11.4503
▁Czechoslovakia	-11.4504
▁pastor	-11.4504
▁Volleyball	-11.4504
▁Flemish	-11.4504
▁Nielsen	-11.4506
uan	-11.4506
hausen	-11.4508
▁supplement	-11.451
▁PS	-11.451
▁ve	-11.4511
▁estimate	-11.4512
▁Leicester	-11.4513
▁canon	-11.4513
▁Emirates	-11.4514
▁Border	-11.4515
▁Alternative	-11.4515
▁chi	-11.4516
▁referee	-11.4516
▁egg	-11.452
▁Presidential	-11.4521
▁Carnegie	-11.4521
▁Female	-11.4521
▁Powell	-11.4525
▁mentor	-11.4525
▁Whit	-11.4527
▁Harper	-11.4528
▁particle	-11.4533
▁accounting	-11.4534
▁laser	-11.4538
▁gra	-11.4539
Hu	-11.4544
▁Twin	-11.4544
▁Tales	-11.4545
▁Richardson	-11.4545
omer	-11.4546
▁Nottingham	-11.4546
BL	-11.4547
▁Jesse	-11.4549
▁MD	-11.455
▁nothing	-11.4555
▁Motion	-11.4559
▁Wave	-11.456
itch	-11.4564
eye	-11.4566
Har	-11.4566
Old	-11.4569
▁Á	-11.457
oe	-11.4571
▁thermal	-11.4574
▁Manor	-11.4578
▁Worth	-11.4579
▁McDonald	-11.458
▁preferred	-11.4581
▁substance	-11.4581
х	-11.4582
▁0,000-	-11.4583
▁Money	-11.4586
ffe	-11.4587
▁SE	-11.4587
▁formats	-11.4589
▁Ng	-11.4592
▁audiences	-11.4593
Sha	-11.4593
г	-11.4597
▁Troy	-11.4597
▁commentary	-11.4597
▁Examples	-11.4598
▁mention	-11.4603
▁superior	-11.4604
oba	-11.4606
▁podcast	-11.4607
▁postal	-11.4611
▁simulation	-11.4614
ingen	-11.4614
▁valid	-11.4615
▁monarch	-11.4616
▁Lodge	-11.4616
▁Advisory	-11.4618
▁Charter	-11.4619
eer	-11.4621
IF	-11.4621
▁gaining	-11.4621
▁inclusion	-11.4622
▁feel	-11.4624
▁Hurricane	-11.4624
▁alien	-11.4624
▁birthday	-11.4625
▁tomb	-11.4626
ulu	-11.4628
▁rat	-11.4629
▁Duck	-11.463
▁Kos	-11.463
UK	-11.463
η	-11.4634
▁keeping	-11.4635
▁dependent	-11.4637
▁floors	-11.4637
▁Slovenian	-11.4637
▁USSR	-11.4638
park	-11.4639
▁rider	-11.464
▁symbols	-11.464
tie	-11.4641
ress	-11.4642
sal	-11.4643
works	-11.4645
▁hat	-11.4646
▁burned	-11.4647
▁recovered	-11.4647
ket	-11.4648
▁infection	-11.4648
▁Legion	-11.465
▁proposal	-11.465
▁Lem	-11.465
▁Angola	-11.465
▁accompanying	-11.4652
akh	-11.4652
▁Level	-11.4655
▁drink	-11.4655
▁Mini	-11.4655
イ	-11.4656
mouth	-11.4656
▁Jesuit	-11.4657
tana	-11.4657
▁Blu	-11.4657
▁Haven	-11.4658
▁numbered	-11.4662
▁Porter	-11.4662
▁hole	-11.4664
▁Again	-11.4665
▁presidency	-11.4665
▁engage	-11.4669
yx	-11.4671
▁Tru	-11.4673
▁stake	-11.4673
▁Ernst	-11.4674
▁staged	-11.4677
▁Rus	-11.4677
▁Ballet	-11.4678
▁α	-11.4679
▁den	-11.468
▁tag	-11.4682
▁sponsor	-11.4684
▁Zoo	-11.4686
▁reforms	-11.4686
▁amounts	-11.4688
Cha	-11.4688
▁Kashmir	-11.469
Ca	-11.469
▁imprint	-11.4691
▁Solar	-11.4691
ime	-11.4692
▁Planning	-11.4692
▁jury	-11.4692
▁electron	-11.4696
▁Linda	-11.4697
▁Fighter	-11.4699
igo	-11.4699
▁Serie	-11.4705
▁Inner	-11.4705
▁AT	-11.4707
door	-11.4709
▁Angels	-11.471
▁stems	-11.4711
▁Stage	-11.4713
▁raid	-11.4715
▁delayed	-11.4715
▁Hood	-11.4716
▁conceived	-11.4716
▁innovative	-11.4716
▁Timothy	-11.4716
▁Volume	-11.4716
beck	-11.4719
▁possession	-11.472
fold	-11.4722
square	-11.4724
▁decrease	-11.4724
▁Crambidae	-11.4725
▁Lublin	-11.4727
▁Discovery	-11.4727
▁Sem	-11.4729
stock	-11.4729
▁Lamb	-11.4731
dio	-11.4732
▁Thoroughbred	-11.4733
gus	-11.4734
specific	-11.4735
race	-11.4738
▁Robertson	-11.4738
▁metro	-11.4739
▁Qing	-11.4739
▁coincide	-11.4739
▁bore	-11.474
▁Marco	-11.4743
▁travelled	-11.4744
▁fabric	-11.4744
fest	-11.4744
▁Motors	-11.4745
▁Body	-11.4747
ache	-11.4748
▁interactions	-11.4749
▁lying	-11.4749
▁Prussia	-11.4749
▁notion	-11.4751
lice	-11.4752
ify	-11.4752
kill	-11.4756
▁Fen	-11.4756
▁Meyer	-11.4757
000)	-11.4758
▁correspondent	-11.4759
▁Epi	-11.476
▁sustainable	-11.476
▁Obama	-11.476
▁chef	-11.4761
▁Eve	-11.4763
nick	-11.4764
mara	-11.4764
▁Aberdeen	-11.4768
lim	-11.4768
▁instructor	-11.4768
▁Duchy	-11.4769
▁runners	-11.4769
▁sit	-11.4776
MO	-11.4776
▁enable	-11.4778
atory	-11.478
▁construct	-11.4781
enia	-11.4782
▁Mak	-11.4786
▁portrayal	-11.4786
▁Napoleon	-11.4791
▁Doug	-11.4794
▁honours	-11.4795
▁Commercial	-11.4796
▁Glenn	-11.4796
holm	-11.4798
▁define	-11.48
rad	-11.4801
▁Vision	-11.4801
nna	-11.4802
▁labels	-11.4802
▁Łódź	-11.4802
▁Finals	-11.4803
▁est	-11.4805
▁Albany	-11.4805
та	-11.4806
▁ba	-11.4807
cross	-11.4807
nat	-11.4807
dian	-11.4807
▁airs	-11.481
anna	-11.481
▁Former	-11.4811
▁Further	-11.4811
▁Montenegro	-11.4811
▁Reg	-11.4811
▁Total	-11.4812
▁tasks	-11.4815
▁costa	-11.4816
▁bombing	-11.4817
▁occasional	-11.4819
▁Boat	-11.4821
LS	-11.4822
▁Rocky	-11.4822
▁sprinter	-11.4823
finals	-11.4827
ч	-11.4828
▁Led	-11.4828
▁prop	-11.4831
▁Marshal	-11.4833
▁interim	-11.4833
▁Sham	-11.4834
▁Dub	-11.4835
oph	-11.4836
▁mammals	-11.4837
▁architects	-11.4838
▁Travel	-11.4838
rium	-11.484
▁Tell	-11.484
leigh	-11.4842
▁tone	-11.4845
▁Minneapolis	-11.4846
▁pine	-11.4846
▁volunteers	-11.4849
▁Ou	-11.4851
▁targets	-11.4852
▁terrorist	-11.4853
▁fee	-11.4854
▁pursuit	-11.4854
▁teeth	-11.4855
▁shield	-11.4855
▁towers	-11.4855
▁Meta	-11.4855
nate	-11.4856
▁cylinder	-11.4859
▁Oriental	-11.4861
né	-11.4862
▁latitude	-11.4863
▁spans	-11.4864
▁cal	-11.4865
production	-11.4865
▁Jer	-11.4865
vir	-11.4866
lly	-11.4867
tori	-11.4867
▁Hawaiian	-11.4867
▁Sisters	-11.4867
▁absorbed	-11.4868
▁Drake	-11.4874
▁parishes	-11.4875
▁conferences	-11.4876
▁similarly	-11.4877
logy	-11.4878
▁Rom	-11.488
▁voltage	-11.4881
hari	-11.4881
ה	-11.4884
▁Cab	-11.4888
mathb	-11.4889
RL	-11.4889
▁continuously	-11.4892
mini	-11.4892
▁proportion	-11.4893
ulation	-11.4894
ilo	-11.4895
▁stroke	-11.4895
▁emotional	-11.4899
dem	-11.4899
shore	-11.4902
ogen	-11.4902
Ancient	-11.4902
▁Bosnian	-11.4905
series	-11.4906
▁Artillery	-11.4906
▁submitted	-11.4907
▁Basque	-11.4908
▁permanently	-11.4909
arian	-11.4909
▁longtime	-11.491
▁Elliott	-11.491
▁actively	-11.4911
gol	-11.4911
lines	-11.4912
vey	-11.4914
▁readers	-11.4915
▁ch	-11.4916
AG	-11.4916
▁Lords	-11.4916
▁underlying	-11.4918
rav	-11.4921
▁polo	-11.4922
▁Banks	-11.4923
usually	-11.4924
▁pounds	-11.4924
mad	-11.4927
▁Flat	-11.4928
▁boarding	-11.4929
▁Alps	-11.493
▁DS	-11.4931
▁Cambodia	-11.4932
▁Malcolm	-11.4933
▁Cara	-11.4933
chel	-11.4939
▁tourists	-11.494
▁centimetres	-11.4941
▁curator	-11.4943
▁Talk	-11.4943
▁→	-11.4946
ario	-11.4948
▁synonym	-11.4949
oko	-11.495
leg	-11.4952
▁payment	-11.4952
▁rotation	-11.4955
▁dimensions	-11.4956
▁Devil	-11.4956
▁Augustus	-11.4963
▁Bak	-11.4964
amine	-11.4965
▁Gab	-11.4965
▁stretch	-11.4966
pis	-11.4967
0),	-11.4968
oa	-11.4969
generation	-11.497
▁Jag	-11.4973
jɛ	-11.4974
▁lesser	-11.4974
▁Tol	-11.4975
▁Sau	-11.4975
ق	-11.4976
hart	-11.4976
▁friendly	-11.4977
▁adventures	-11.4978
ό	-11.4978
▁Dee	-11.4981
▁Faith	-11.4981
pes	-11.4982
eon	-11.4985
▁buses	-11.4985
▁emigrated	-11.4986
но	-11.4988
▁exhibits	-11.4989
▁scores	-11.4991
bee	-11.4991
▁Pitt	-11.4993
▁encouraged	-11.4993
▁Relations	-11.4994
▁Loch	-11.4998
▁collect	-11.4999
▁Therefore	-11.5003
▁Mae	-11.5004
во	-11.5005
▁bread	-11.5006
{\	-11.5006
ال	-11.5007
▁pack	-11.5007
ulus	-11.5008
ور	-11.5009
▁Bran	-11.501
fit	-11.501
▁moves	-11.5012
▁Coalition	-11.5012
▁duration	-11.5013
▁Poll	-11.5014
ete	-11.5014
▁doors	-11.5018
▁trophy	-11.5018
ев	-11.5018
▁Cardinal	-11.502
▁camps	-11.502
rz	-11.502
▁hiatus	-11.5021
▁Canon	-11.5021
▁Merit	-11.5022
▁Rum	-11.5023
▁ballot	-11.5024
rim	-11.5025
▁Paper	-11.5025
sei	-11.5028
▁san	-11.5028
▁Self	-11.5031
ار	-11.5031
sham	-11.5033
▁Bog	-11.5034
aged	-11.5034
▁increases	-11.5034
▁sufficient	-11.5037
PG	-11.5037
▁Nathan	-11.5037
▁mirror	-11.5038
▁sunk	-11.5038
▁recreation	-11.5044
ree	-11.5044
▁inaugurated	-11.5046
▁Paralympic	-11.5047
▁Emeritus	-11.5047
▁botanical	-11.5047
hol	-11.5049
ł	-11.5049
▁Ole	-11.5052
▁Working	-11.5055
ɲ	-11.5056
▁Produced	-11.5057
▁resumed	-11.5059
▁Kit	-11.5059
·	-11.5062
ern	-11.5063
▁Mori	-11.5063
▁surfaces	-11.5063
▁Midlands	-11.5065
▁Jeremy	-11.5065
cco	-11.5068
▁Colony	-11.5068
oʊ	-11.5071
has	-11.5072
▁Burn	-11.5073
▁philosophical	-11.5074
▁victim	-11.5074
▁binary	-11.5075
▁pictures	-11.5075
▁realm	-11.5079
▁tetra	-11.508
▁Arms	-11.5081
▁Novel	-11.5082
▁Thomson	-11.5083
▁beer	-11.5084
▁dogs	-11.5084
▁Belt	-11.5085
RM	-11.5086
pon	-11.509
▁Superior	-11.5092
▁Speedway	-11.5092
▁LA	-11.5093
▁Osaka	-11.5094
SB	-11.5094
iq	-11.5096
▁townships	-11.5098
▁Belarus	-11.5099
▁Lock	-11.5099
▁profit	-11.5104
▁Scots	-11.5104
rr	-11.5107
▁bars	-11.5107
▁minimal	-11.5111
corn	-11.5112
▁improvement	-11.5113
author	-11.5114
▁handling	-11.5115
ц	-11.5116
▁Jeffrey	-11.5119
▁tribal	-11.5119
AB	-11.5121
▁fu	-11.5121
▁Past	-11.5124
▁Pit	-11.5125
▁Resort	-11.5127
lane	-11.513
▁curve	-11.5131
▁temperatures	-11.5132
tten	-11.5133
VA	-11.5133
▁blind	-11.5135
ched	-11.5136
▁judicial	-11.5136
▁00.0000°	-11.5136
▁Patricia	-11.5137
odes	-11.5138
▁sequences	-11.5138
British	-11.5142
▁editing	-11.5142
▁parking	-11.5144
▁Hundred	-11.5145
▁frigate	-11.5145
▁Alberto	-11.5145
▁procedures	-11.5147
▁equations	-11.5147
▁Dre	-11.5149
▁conflicts	-11.5151
ull	-11.5152
▁furniture	-11.5154
▁Cheshire	-11.5154
▁dense	-11.5155
▁pipe	-11.5155
▁Tyler	-11.5155
▁Zhang	-11.5156
▁Ghanaian	-11.5158
▁feminine	-11.516
▁Macedonian	-11.5163
▁fungus	-11.5163
▁hometown	-11.5168
▁dwarf	-11.5172
▁Combat	-11.5173
press	-11.5174
▁watershed	-11.5174
▁terrain	-11.5174
▁cutting	-11.5176
imi	-11.5178
▁Francesco	-11.5179
both	-11.5179
▁Gua	-11.518
▁understood	-11.5181
▁Chennai	-11.5181
▁Cle	-11.5181
phon	-11.5182
quet	-11.5183
▁Any	-11.5187
▁gathering	-11.5188
▁derivative	-11.5192
▁ro	-11.5193
▁Course	-11.5194
size	-11.5194
▁vo	-11.5195
▁Cecil	-11.5195
▁Josh	-11.5195
▁recruited	-11.5196
▁ju	-11.5197
▁sleep	-11.5199
▁moon	-11.52
uru	-11.52
▁Barr	-11.52
▁Bailey	-11.5201
▁wars	-11.5203
▁Å	-11.5203
TI	-11.5205
▁q	-11.5206
▁presentation	-11.5208
▁investigate	-11.5208
▁penalty	-11.5208
▁trap	-11.5209
stic	-11.5211
▁PGA	-11.5212
▁portraits	-11.5212
▁landowner	-11.5218
▁Sacramento	-11.5218
▁controls	-11.5219
▁apartment	-11.5221
+0	-11.5222
▁Soon	-11.5223
▁Blo	-11.5224
▁fl	-11.5224
▁Roland	-11.5225
ش	-11.5225
▁criteria	-11.5226
▁shoot	-11.5227
▁MW	-11.5227
▁commuter	-11.5228
ा	-11.5229
▁computational	-11.523
▁Arabian	-11.523
▁Shiva	-11.5232
screen	-11.5233
its	-11.5233
otic	-11.5234
▁spacecraft	-11.5236
▁cyclone	-11.5239
▁teaches	-11.5239
arra	-11.524
▁developers	-11.5243
▁Graduate	-11.5244
▁Paramount	-11.5244
▁dancing	-11.5244
2	-11.5245
mma	-11.5245
▁celebration	-11.5247
▁Return	-11.5253
▁Mohammed	-11.5253
ancy	-11.5253
▁Brun	-11.5256
CM	-11.5259
hit	-11.526
▁CH	-11.526
▁Emp	-11.5263
▁Sugar	-11.5264
▁collectively	-11.5264
▁Ellen	-11.5264
▁Cohen	-11.5265
▁accurate	-11.5265
▁illustrations	-11.5265
▁dangerous	-11.5266
pho	-11.5266
,[	-11.5267
▁Kro	-11.5268
▁shelter	-11.527
▁Catalonia	-11.5271
▁measuring	-11.5271
▁Jorge	-11.5275
▁enrolled	-11.5275
▁manual	-11.5275
▁Llan	-11.5277
sche	-11.5277
▁Wheel	-11.5279
▁Mathematics	-11.528
▁supporter	-11.528
▁Clare	-11.5283
▁Lund	-11.5285
eira	-11.5285
modern	-11.5286
rab	-11.5287
lı	-11.5289
ake	-11.5292
▁meter	-11.5293
▁magic	-11.5293
▁Outside	-11.5293
▁reactions	-11.5295
Un	-11.5297
▁Recreation	-11.5298
▁Namibia	-11.5299
▁seal	-11.53
▁Buddha	-11.53
wei	-11.5301
▁breast	-11.5302
oto	-11.5304
bet	-11.5308
▁Investment	-11.5309
▁00.0000000	-11.5312
▁Christians	-11.5312
▁migration	-11.5313
eve	-11.5315
▁Gad	-11.5315
▁lineage	-11.5317
▁topic	-11.5317
▁Ladies	-11.5319
Big	-11.532
▁loose	-11.532
LR	-11.5322
asse	-11.5323
tina	-11.5325
▁discography	-11.5326
▁Marsh	-11.5326
▁succeeding	-11.5327
about	-11.5329
opa	-11.5329
▁Kel	-11.5331
▁ARIA	-11.5331
▁rabbi	-11.5333
▁Fifth	-11.5335
▁Safety	-11.5335
▁Jen	-11.5336
▁thirteenth	-11.5337
▁Cow	-11.5338
▁trails	-11.5338
▁let	-11.5338
▁keyboard	-11.5339
▁FAA	-11.5339
▁battalion	-11.534
▁contribute	-11.534
▁columnist	-11.534
▁eventual	-11.5341
▁sisters	-11.5341
▁Qua	-11.5342
half	-11.5345
▁Gin	-11.5347
▁Winston	-11.5349
trans	-11.535
▁synthetic	-11.5351
▁bowling	-11.5352
▁discussed	-11.5353
▁Beatles	-11.5354
cept	-11.5359
burgh	-11.5361
▁Fighting	-11.5362
▁Joshua	-11.5362
▁incorporates	-11.5363
▁Kot	-11.5363
▁monuments	-11.5363
▁Uni	-11.5364
▁Jung	-11.5366
▁Recordings	-11.5368
▁Holdings	-11.537
▁faster	-11.5371
▁revolt	-11.5371
lation	-11.5372
ony	-11.5372
beat	-11.5373
grad	-11.5373
▁composers	-11.5374
▁Lea	-11.5377
▁memoir	-11.5377
▁Underground	-11.5381
▁Airlines	-11.5382
▁geological	-11.5382
▁accomplished	-11.5384
▁Rec	-11.5385
▁horn	-11.5386
▁directing	-11.5389
▁Paradise	-11.5389
▁Close	-11.539
▁Pirates	-11.5395
▁algebraic	-11.5403
cum	-11.5403
▁fat	-11.5403
▁li	-11.5404
▁Baldwin	-11.5408
▁Organisation	-11.5408
▁Middlesex	-11.5409
▁flights	-11.5409
So	-11.5411
ń	-11.5412
▁concentrated	-11.5413
▁بن	-11.5414
eem	-11.5416
▁García	-11.5417
▁Nuclear	-11.5417
▁colonel	-11.5418
▁Nash	-11.542
bourne	-11.542
hui	-11.5421
▁Pod	-11.5421
ər	-11.5422
rang	-11.5422
▁mechanisms	-11.5425
road	-11.5428
▁Rot	-11.5428
▁Slam	-11.543
▁Jamie	-11.5431
ingham	-11.5433
▁Animal	-11.5434
▁escort	-11.5435
▁intensity	-11.5435
▁catalogue	-11.5436
ος	-11.5438
grade	-11.5439
▁retain	-11.5441
▁Rosen	-11.5442
▁precursor	-11.5444
▁trunk	-11.5444
▁Dylan	-11.5445
▁Electronic	-11.5445
mut	-11.5446
▁Rachel	-11.5446
▁corps	-11.5447
▁catalog	-11.5449
▁Diana	-11.5452
▁Mail	-11.5452
dog	-11.5455
ega	-11.5455
▁generate	-11.5456
ssa	-11.5458
▁ke	-11.5459
OH	-11.5461
▁admiral	-11.5462
Canadian	-11.5462
ending	-11.5468
▁Karen	-11.5469
▁rough	-11.5469
▁Breuning	-11.5472
▁Observatory	-11.5472
▁Stefan	-11.5474
▁transform	-11.5474
▁difficulties	-11.5474
▁garnered	-11.5475
▁Brain	-11.5475
▁Dragons	-11.5475
▁Hayes	-11.5476
rik	-11.5476
▁Martha	-11.5477
▁Ok	-11.5477
ann	-11.5478
▁Eg	-11.5478
▁bankruptcy	-11.5482
tidae	-11.5487
▁dialects	-11.5488
any	-11.5489
▁00000.	-11.549
▁Bangkok	-11.5491
▁Reservoir	-11.5491
▁cognitive	-11.5491
▁preceding	-11.5491
▁Marathon	-11.5491
▁Rand	-11.5491
▁drainage	-11.5491
▁intense	-11.5492
▁Rein	-11.5498
▁jobs	-11.5498
▁elaborate	-11.55
▁Step	-11.55
▁Creative	-11.55
▁theology	-11.55
▁dock	-11.5501
▁Gustav	-11.5505
sworth	-11.5506
▁macro	-11.5507
▁claiming	-11.5508
▁bath	-11.5509
▁necessarily	-11.5509
endra	-11.551
▁conducting	-11.5511
opsis	-11.5512
ort	-11.5512
▁Clara	-11.5513
ová	-11.5513
▁Chuck	-11.5513
unk	-11.5518
rill	-11.5518
▁née	-11.5518
cop	-11.5521
erson	-11.5522
▁violinist	-11.5522
nne	-11.5523
iu	-11.5523
▁Gru	-11.5523
▁Article	-11.5524
▁attempting	-11.5525
nge	-11.5527
▁Morrison	-11.5527
ิ	-11.5528
uv	-11.5528
▁Ala	-11.5529
▁trend	-11.553
base	-11.5531
than	-11.5536
▁metric	-11.5536
▁SP	-11.5536
rach	-11.5536
▁fraud	-11.5537
▁Mosque	-11.5539
rise	-11.554
▁shock	-11.554
▁diet	-11.554
nz	-11.5541
▁Amendment	-11.5541
pm	-11.5542
Bengali	-11.5546
▁neutral	-11.5546
▁NATO	-11.5546
▁recognize	-11.5546
▁Academic	-11.5546
▁truth	-11.5546
▁auction	-11.5546
organ	-11.5551
Bi	-11.5552
▁μ	-11.5553
▁rode	-11.5554
▁depot	-11.5554
rail	-11.5556
▁grain	-11.5556
▁Bit	-11.5559
hom	-11.556
▁depends	-11.556
▁Sher	-11.5562
ד	-11.5564
ono	-11.5565
▁vicinity	-11.5565
▁chassis	-11.5565
ά	-11.5565
▁Lot	-11.5568
▁NA	-11.557
▁recovery	-11.5571
▁distant	-11.5575
▁cultivated	-11.5576
AFL	-11.5577
Hop	-11.5577
▁Cri	-11.558
▁restrictions	-11.5581
▁killer	-11.5582
▁hypo	-11.5582
▁fewer	-11.5582
▁Pon	-11.5583
ppa	-11.5584
▁Adventure	-11.5584
▁Sons	-11.5584
fan	-11.5584
Pe	-11.5585
▁Bollywood	-11.5585
▁tight	-11.5588
▁interchange	-11.5592
▁attacking	-11.5592
nos	-11.5593
▁nerve	-11.5593
yev	-11.5594
▁singers	-11.5598
▁tested	-11.5599
▁sky	-11.5599
▁Being	-11.5599
▁retreat	-11.5601
▁aquatic	-11.5603
▁unsuccessfully	-11.5604
▁acronym	-11.5606
▁boards	-11.5607
▁guests	-11.5608
▁(0000-00-00)	-11.5609
▁targeted	-11.5611
▁familiar	-11.5612
▁wicket	-11.5613
▁semifinals	-11.5614
▁turns	-11.5616
wel	-11.5617
▁automotive	-11.5621
▁width	-11.5621
TR	-11.5624
▁Prof	-11.5627
▁winds	-11.5627
▁Tax	-11.5627
▁Turn	-11.5628
▁Sega	-11.563
▁Geoffrey	-11.563
▁cartridge	-11.5631
gil	-11.5636
▁Gri	-11.5636
▁analog	-11.5638
▁democracy	-11.5638
▁assassination	-11.564
▁Hitler	-11.5641
▁Sandy	-11.5644
▁Kru	-11.5644
This	-11.5645
▁Rams	-11.5648
▁Ultra	-11.565
▁solve	-11.565
▁Mam	-11.5658
loy	-11.5658
cultural	-11.5658
zia	-11.5658
▁Worcester	-11.5658
▁temporarily	-11.5659
▁Cornell	-11.5661
bey	-11.5662
ès	-11.5663
third	-11.5666
▁Cloud	-11.5667
▁Belarusian	-11.5668
▁Holocaust	-11.5668
་	-11.5668
▁dozen	-11.5672
FL	-11.5676
eff	-11.5677
▁hotels	-11.5677
▁tin	-11.5677
nier	-11.568
▁Sofia	-11.5682
▁Tea	-11.5684
▁Wol	-11.5687
▁beneath	-11.5687
▁Zambia	-11.5688
▁rally	-11.5689
▁Burns	-11.569
▁Chor	-11.5691
North	-11.5695
▁Fran	-11.5698
▁lightweight	-11.5698
amo	-11.5698
▁Burke	-11.5698
▁examination	-11.5698
unda	-11.57
Cl	-11.5701
▁strict	-11.5703
▁climbing	-11.5706
▁wireless	-11.5709
iza	-11.5713
▁posts	-11.5715
municipality	-11.5716
▁ecclesiastical	-11.5716
▁Mick	-11.5719
▁Hit	-11.572
▁beam	-11.572
▁Mud	-11.572
▁Salem	-11.5721
gard	-11.5721
rl	-11.5722
▁Leopold	-11.5725
▁triangle	-11.5725
▁Cairo	-11.5727
▁Papa	-11.5727
▁Đ	-11.5728
lina	-11.5728
▁NC	-11.5728
▁consistent	-11.5729
▁Legal	-11.573
▁nest	-11.573
hot	-11.573
▁dress	-11.573
▁ra	-11.5733
sman	-11.5733
▁capabilities	-11.5734
▁experts	-11.5736
▁subdivision	-11.5737
▁fairly	-11.5737
song	-11.5738
llen	-11.5741
▁marking	-11.5742
▁Berry	-11.5742
▁welfare	-11.5744
EN	-11.5744
▁Mack	-11.5746
ici	-11.5747
wang	-11.575
▁ST	-11.5752
▁Erebidae	-11.5753
▁analyst	-11.5753
▁denied	-11.5753
п	-11.5754
▁swing	-11.5756
▁helicopter	-11.5756
▁bed	-11.5757
▁Tunnel	-11.5757
▁cameras	-11.5758
▁linguistic	-11.5762
▁civic	-11.5763
▁irregular	-11.5766
▁Kle	-11.577
▁Vil	-11.5771
▁proximity	-11.5772
▁skyscraper	-11.5772
▁CP	-11.5773
wind	-11.5777
▁cooking	-11.578
walk	-11.578
▁collaborative	-11.5782
▁linguist	-11.5783
▁finds	-11.5783
▁automatically	-11.5783
-0,	-11.5783
host	-11.5785
▁employee	-11.5785
▁Pick	-11.5786
rá	-11.5787
▁helps	-11.579
▁oral	-11.5796
ج	-11.5796
hil	-11.5797
▁disputed	-11.5797
▁Cord	-11.5798
▁Yard	-11.5798
▁explores	-11.58
inn	-11.58
▁Tunisia	-11.58
▁Griffith	-11.5801
▁Chelsea	-11.5801
hof	-11.5803
▁commitment	-11.5803
▁Turin	-11.5803
moor	-11.5805
▁yard	-11.5805
issa	-11.5809
▁builder	-11.581
▁dimension	-11.581
▁Verde	-11.5813
▁Kenny	-11.5815
▁republic	-11.5816
▁cord	-11.5817
▁Style	-11.5818
Can	-11.5819
oria	-11.5819
▁Leipzig	-11.582
▁Kane	-11.5821
▁develops	-11.5821
▁runway	-11.5822
▁basal	-11.5822
▁Concert	-11.5823
aco	-11.5823
▁Crow	-11.5824
▁kinds	-11.5824
▁investors	-11.5826
inen	-11.5828
▁Klein	-11.5828
▁termed	-11.5828
▁Zagreb	-11.5829
abi	-11.583
stylized	-11.583
▁batting	-11.5831
▁interactive	-11.5831
originally	-11.5833
▁scope	-11.5833
wed	-11.5835
▁traveling	-11.5835
▁Joel	-11.5837
▁Astro	-11.5838
▁rulers	-11.5839
▁advocacy	-11.5839
▁survival	-11.5839
▁immigration	-11.5839
▁ESPN	-11.5839
▁Tehran	-11.5839
▁FIBA	-11.584
ON	-11.5843
pir	-11.5843
▁Ain	-11.5845
ically	-11.5848
▁dissolution	-11.5849
Fa	-11.585
quin	-11.5851
▁Paraguay	-11.5854
▁Kerry	-11.5854
▁Hou	-11.5855
▁demonstrated	-11.5857
rama	-11.5858
▁decorative	-11.5858
▁Saga	-11.5858
RP	-11.5863
hur	-11.5863
phone	-11.5865
▁hidden	-11.5868
▁perception	-11.5869
▁fitted	-11.5869
▁rational	-11.587
▁Math	-11.5874
▁combining	-11.5877
▁Clyde	-11.5878
face	-11.588
▁Naga	-11.5881
▁Hop	-11.5882
▁maker	-11.5884
▁nu	-11.5884
▁Wer	-11.5885
▁tune	-11.5885
him	-11.5886
▁descendant	-11.5887
▁raising	-11.5887
▁plural	-11.5888
▁Vis	-11.589
▁René	-11.589
▁Programme	-11.5892
▁flavor	-11.5895
▁Ton	-11.5896
▁Cut	-11.5896
▁navigation	-11.5897
▁Prairie	-11.5897
▁Criminal	-11.5897
▁Elementary	-11.5897
▁Herald	-11.5897
▁Cedar	-11.5898
hā	-11.59
▁pitched	-11.5901
rup	-11.5904
▁ja	-11.5906
rog	-11.5906
▁Reynolds	-11.5906
gna	-11.5906
▁Berkshire	-11.5906
▁Complete	-11.5907
▁racehorse	-11.5907
▁Large	-11.5907
stage	-11.5909
▁Guru	-11.5909
▁Spe	-11.5912
▁Sap	-11.5913
▁Animation	-11.5916
▁Lisbon	-11.5916
▁fault	-11.5917
▁mask	-11.5917
nation	-11.5918
евич	-11.5921
lash	-11.5922
national	-11.5923
Pi	-11.5923
▁continent	-11.5924
dur	-11.5926
▁Lum	-11.5926
▁rocky	-11.5927
▁longitude	-11.5928
▁originates	-11.5931
▁missed	-11.5932
nn	-11.5932
▁HIV	-11.5933
▁skill	-11.5933
▁fortune	-11.5935
̯	-11.5935
dai	-11.5936
▁Sus	-11.5938
▁detail	-11.5938
emi	-11.5942
▁followers	-11.5943
▁Jakarta	-11.5945
▁absolute	-11.5945
▁diamond	-11.5945
iger	-11.5947
▁Inside	-11.5948
▁Plateau	-11.5949
HL	-11.595
scribe	-11.5952
▁Highlands	-11.5953
▁Schi	-11.5954
}\	-11.5954
▁consort	-11.5954
party	-11.5954
▁settings	-11.5954
▁Caesar	-11.5955
▁monk	-11.5956
wave	-11.5956
▁grants	-11.5957
▁Dow	-11.5957
▁Elder	-11.5959
▁Constitutional	-11.596
▁Epic	-11.5962
▁WWE	-11.5966
ender	-11.5968
▁Que	-11.597
▁Pond	-11.5972
▁Esp	-11.5975
▁layers	-11.5976
▁Idol	-11.5978
▁Drug	-11.5978
▁authorized	-11.598
▁harm	-11.5981
▁comprised	-11.5982
▁spend	-11.5983
▁folded	-11.5984
▁superhero	-11.5984
odo	-11.5986
υ	-11.5987
▁Charleston	-11.5988
▁decoration	-11.5991
▁Arch	-11.5992
▁cruise	-11.5992
▁uncertain	-11.5993
▁stability	-11.5994
▁equity	-11.5994
▁Summit	-11.5994
▁Happy	-11.5995
▁engineers	-11.5996
▁Petro	-11.5996
▁improving	-11.5996
▁roller	-11.5996
▁Bug	-11.5997
▁Potter	-11.5998
▁Want	-11.6
ʒ	-11.6
anza	-11.6002
woman	-11.6003
▁Dorothy	-11.6003
▁Hel	-11.6005
hiro	-11.6005
▁alter	-11.6005
▁Bradley	-11.6006
dhi	-11.6007
▁orientation	-11.6008
▁Mé	-11.6009
ume	-11.601
▁facto	-11.6011
▁Vernon	-11.6012
▁Monastery	-11.6013
▁airfield	-11.6013
▁permitted	-11.6013
Saint	-11.6016
▁unreleased	-11.6017
▁algorithms	-11.6018
lou	-11.6018
▁Baba	-11.602
lake	-11.602
tang	-11.6022
▁CBC	-11.6022
▁Rafael	-11.6023
▁Lev	-11.6025
▁receptors	-11.6025
ssen	-11.6026
▁notice	-11.6026
▁mud	-11.6026
mol	-11.6028
▁scholarly	-11.6029
▁Normal	-11.603
▁Ace	-11.6031
ifolia	-11.6031
pter	-11.6031
▁Hyderabad	-11.6033
▁gospel	-11.6033
▁repeat	-11.6033
▁dia	-11.6033
▁ports	-11.6035
month	-11.6037
▁colours	-11.6037
▁horizontal	-11.6039
pine	-11.604
alia	-11.6041
enstein	-11.6041
▁Bulldogs	-11.6042
▁enjoy	-11.6048
▁Hua	-11.6049
phe	-11.6049
▁Beyond	-11.6052
ɒ	-11.6055
▁communes	-11.6055
▁upcoming	-11.6056
tham	-11.6056
▁Current	-11.6056
▁liver	-11.6057
▁contributor	-11.606
▁zones	-11.6061
▁ion	-11.6065
▁motorway	-11.6068
▁Emily	-11.607
mount	-11.6071
▁premiership	-11.6073
▁qua	-11.6073
ɕ	-11.6074
▁Hydro	-11.6074
▁che	-11.6075
ル	-11.6075
▁revolves	-11.6077
▁Sas	-11.6078
ś	-11.6079
rist	-11.6081
▁Access	-11.6081
▁possibility	-11.6082
▁temperate	-11.6082
▁Madhya	-11.6082
▁Bronze	-11.6082
▁ministers	-11.6083
▁whitish	-11.6086
▁Mix	-11.6088
▁verb	-11.6089
▁encourage	-11.609
▁Gloucestershire	-11.6092
▁monitoring	-11.6093
▁powder	-11.6096
▁Casa	-11.6098
▁Afro	-11.6098
Ne	-11.6098
agi	-11.61
▁estates	-11.61
shot	-11.6101
▁populous	-11.6101
▁Galway	-11.6103
▁spoke	-11.6103
▁Algerian	-11.6105
gie	-11.6106
▁Et	-11.6108
▁arrangements	-11.6108
▁flowing	-11.6108
▁Scha	-11.6108
▁celebrity	-11.6111
fall	-11.6111
▁Scar	-11.6115
▁ballad	-11.6117
syn	-11.612
▁subset	-11.6121
▁folklore	-11.6121
▁op	-11.6123
▁Pomeranian	-11.6123
▁Pseudo	-11.6127
▁Democracy	-11.6131
ike	-11.6133
president	-11.6134
àn	-11.6135
▁spur	-11.6135
▁Hin	-11.6136
stro	-11.6136
▁storyline	-11.6137
▁provision	-11.6139
eman	-11.614
▁clerk	-11.6141
▁exterior	-11.6141
uel	-11.6145
▁Stre	-11.6149
▁farms	-11.615
▁sculptures	-11.6151
▁adoption	-11.6152
▁successive	-11.6153
▁Tank	-11.6154
lap	-11.6155
ways	-11.6156
zin	-11.6158
Su	-11.616
▁Rudolf	-11.616
▁legally	-11.6163
▁Sci	-11.6163
gno	-11.6165
▁Og	-11.6165
ators	-11.6169
▁Rabbi	-11.6169
▁electorate	-11.617
▁Sidney	-11.6171
▁holes	-11.6173
▁crops	-11.6174
att	-11.6174
say	-11.6174
▁quick	-11.6175
eti	-11.6176
rou	-11.6178
▁neighborhoods	-11.6179
▁Gloucester	-11.618
ɣ	-11.618
▁Visual	-11.618
▁Betty	-11.6181
▁seeks	-11.6181
▁Ale	-11.6185
lab	-11.6187
▁fi	-11.6189
▁Willie	-11.619
▁delegation	-11.619
▁Providence	-11.619
▁Honours	-11.6191
eda	-11.6196
▁firms	-11.6198
▁gray	-11.6198
▁explore	-11.62
▁Ah	-11.6202
cl	-11.6203
lev	-11.6206
▁potentially	-11.6206
▁Hermann	-11.6207
▁Elections	-11.6208
▁occupies	-11.621
▁Literary	-11.621
▁altered	-11.6211
▁faction	-11.6211
▁mature	-11.6213
RF	-11.6213
▁sectors	-11.6215
stadt	-11.6216
▁Beaver	-11.6218
▁exactly	-11.622
▁Greene	-11.622
▁providers	-11.6222
▁Chandra	-11.6222
▁Porto	-11.6222
ва	-11.6223
▁collecting	-11.6224
▁disappeared	-11.6224
mod	-11.6226
GC	-11.6226
ered	-11.6228
▁applies	-11.623
▁Dry	-11.6231
dig	-11.6232
▁teach	-11.6236
haus	-11.6236
▁telenovela	-11.624
▁biologist	-11.6243
main	-11.6245
▁distributor	-11.625
▁División	-11.625
ม	-11.625
SF	-11.625
▁counted	-11.625
▁Hampton	-11.625
kle	-11.6252
▁ZIP	-11.6253
▁implement	-11.6256
FF	-11.6257
NZ	-11.6258
▁smoke	-11.6259
▁Hag	-11.6259
▁batted	-11.6261
▁ga	-11.6262
▁delegate	-11.6262
▁spell	-11.6265
pos	-11.6265
▁Tourism	-11.6266
▁Image	-11.6268
▁Syracuse	-11.627
▁badminton	-11.627
iba	-11.6271
▁permission	-11.6271
▁Naka	-11.6272
▁Julie	-11.6272
▁Cove	-11.6275
gri	-11.6275
נ	-11.6275
▁suspected	-11.6277
▁Murder	-11.6278
What	-11.6278
χ	-11.628
▁alumni	-11.628
▁interact	-11.6282
▁Credit	-11.6285
▁Map	-11.6286
WC	-11.6288
▁Amar	-11.6289
▁Cretaceous	-11.629
▁renovated	-11.629
▁Ranch	-11.629
▁supervision	-11.629
▁Handball	-11.629
▁ritual	-11.6292
▁console	-11.6292
▁Basel	-11.6294
▁Civic	-11.6295
0+	-11.6296
▁Without	-11.6296
sdale	-11.6297
▁ع	-11.6297
▁dollars	-11.6299
▁petition	-11.63
▁00-00.	-11.6301
▁Gon	-11.6302
▁Kab	-11.6302
▁ser	-11.6303
ls	-11.6306
▁manages	-11.6306
▁flooding	-11.6307
▁atomic	-11.6308
▁woodland	-11.6309
▁explain	-11.631
▁Mut	-11.6312
▁Tibet	-11.6316
▁Thur	-11.6319
▁Sak	-11.6319
.0000	-11.6319
▁Fly	-11.6321
▁Reich	-11.6322
▁mutual	-11.6324
▁Jamaican	-11.6325
▁fer	-11.6325
verse	-11.6326
▁Elm	-11.6326
ʼ	-11.633
▁requiring	-11.633
lf	-11.6331
▁Vic	-11.6332
▁slope	-11.6334
▁Yemen	-11.6334
vision	-11.6335
▁Wie	-11.6335
lak	-11.6335
▁Sala	-11.6336
▁escaped	-11.6336
▁tell	-11.6336
zzo	-11.6338
▁clearly	-11.6339
NL	-11.6339
▁antagonist	-11.634
▁guidance	-11.634
▁Barnes	-11.634
▁skiing	-11.6343
▁Ferry	-11.6344
▁edges	-11.6345
▁depicting	-11.6347
▁Hun	-11.6348
▁consideration	-11.6349
▁finale	-11.6351
sai	-11.6353
▁bow	-11.6353
rud	-11.6353
▁Josef	-11.6354
▁shrine	-11.6354
ako	-11.6355
SH	-11.6355
cro	-11.6356
kam	-11.6356
▁Eva	-11.6356
etz	-11.6359
▁improvements	-11.636
▁galaxy	-11.636
kka	-11.6363
▁really	-11.6366
▁scorer	-11.6366
▁Student	-11.6368
uter	-11.637
▁Category	-11.637
▁autumn	-11.637
▁imprisonment	-11.637
▁translations	-11.6373
World	-11.6375
▁los	-11.6375
cate	-11.6378
CB	-11.6379
▁titular	-11.6381
▁Pablo	-11.6381
inda	-11.6384
▁Northwestern	-11.6384
▁Tong	-11.6384
▁Blair	-11.6385
▁Bates	-11.6386
▁statesman	-11.6388
0-	-11.6388
NR	-11.639
cing	-11.6391
▁Chemistry	-11.6391
▁Constantinople	-11.6391
▁harbour	-11.6391
▁yacht	-11.6391
▁Raiders	-11.6392
▁Period	-11.6392
standing	-11.6392
▁motto	-11.6392
hum	-11.6393
rain	-11.6394
▁Interest	-11.6394
▁informal	-11.6395
ло	-11.6397
▁Shop	-11.6397
AI	-11.6399
▁Poli	-11.6399
▁Moses	-11.64
▁outscored	-11.6401
▁citing	-11.6401
▁vault	-11.6402
hei	-11.6404
▁Walsh	-11.6405
▁prove	-11.6406
▁Shortly	-11.6407
▁commerce	-11.6407
▁Ultimate	-11.6407
▁difficulty	-11.6408
▁projection	-11.6408
▁discuss	-11.6409
▁Derek	-11.6409
▁ancestry	-11.6411
▁ingredients	-11.6411
▁И	-11.6412
▁spawned	-11.6412
▁Dawn	-11.6412
▁chord	-11.6413
▁Lal	-11.6415
خ	-11.6415
plane	-11.6417
▁İ	-11.642
▁Appeals	-11.642
▁complement	-11.642
▁Galaxy	-11.6421
▁Writing	-11.6421
▁admission	-11.6421
▁Mans	-11.6422
▁0/00	-11.6422
▁cow	-11.6423
▁styled	-11.6423
version	-11.6425
ст	-11.6426
▁Dunn	-11.6426
combe	-11.6428
oco	-11.6428
▁expanding	-11.643
plex	-11.643
▁crystal	-11.6431
▁achieving	-11.6431
▁pharmaceutical	-11.6431
▁Southampton	-11.6431
▁Housing	-11.6432
bot	-11.6432
▁Def	-11.6432
▁counterpart	-11.6432
▁reconstruction	-11.6433
▁Normandy	-11.6433
▁reserved	-11.6434
▁Coal	-11.6434
DD	-11.6436
▁Quarter	-11.6437
▁Parks	-11.6437
▁Denis	-11.6441
▁Greenland	-11.6441
▁Commodore	-11.6441
▁Terminal	-11.6441
▁Carlton	-11.6442
▁marble	-11.6442
▁Dil	-11.6442
▁manuscripts	-11.6444
▁Drag	-11.6444
trop	-11.6445
pl	-11.6445
▁Plains	-11.6445
tailed	-11.6447
▁toll	-11.6447
shed	-11.6448
▁surgical	-11.6448
▁slaves	-11.6449
oper	-11.6452
▁broader	-11.6453
▁Haiti	-11.6454
▁Single	-11.6456
▁Jacksonville	-11.6458
tto	-11.6461
▁Uzbekistan	-11.6462
▁Churches	-11.6463
▁Lis	-11.6463
ace	-11.6464
school	-11.6466
John	-11.6466
Norwegian	-11.6466
ʂ	-11.6468
MLB	-11.6469
▁Occitan	-11.6469
▁embassy	-11.6472
▁gubernatorial	-11.6472
Neill	-11.6473
▁transformed	-11.6474
▁complexity	-11.6474
▁theorist	-11.6475
nut	-11.6475
AV	-11.6476
MB	-11.6478
lect	-11.6478
▁grape	-11.648
▁CC	-11.6481
ulo	-11.6481
▁eclipse	-11.6482
▁graduation	-11.6482
OM	-11.6482
NG	-11.6483
▁poets	-11.6484
▁Ful	-11.6485
nese	-11.6485
▁chaired	-11.6485
▁(0000-	-11.6485
wear	-11.6487
▁raw	-11.649
▁ready	-11.649
▁naturalist	-11.6494
▁Steam	-11.6494
▁options	-11.6498
skoye	-11.6499
hab	-11.65
▁denomination	-11.65
▁Mercedes	-11.6503
▁Johnston	-11.6505
▁contracts	-11.6507
▁Moss	-11.6509
▁WA	-11.651
▁Gel	-11.6512
▁Clear	-11.6512
▁Fast	-11.6513
ე	-11.6513
▁kick	-11.6515
▁gift	-11.6519
ą	-11.652
recorded	-11.6521
▁Plus	-11.6522
punk	-11.6522
wara	-11.6523
▁Bedford	-11.6524
▁rec	-11.6525
ester	-11.6526
▁IS	-11.6527
▁Cran	-11.653
▁hu	-11.6531
▁Qi	-11.6532
dr	-11.6533
anger	-11.6533
▁Taipei	-11.6533
▁Portsmouth	-11.6533
▁uprising	-11.6533
▁Slavic	-11.6534
▁Bruno	-11.6539
dding	-11.6542
gren	-11.6543
▁garage	-11.6544
▁unless	-11.6546
▁dean	-11.6547
gr	-11.6553
▁Stor	-11.6554
meaning	-11.6554
ril	-11.6558
▁chains	-11.656
▁specialised	-11.656
dol	-11.656
▁Jaya	-11.656
▁sustained	-11.656
pod	-11.6561
▁Rin	-11.6562
bid	-11.6562
eal	-11.6563
▁Mata	-11.6567
▁Cell	-11.657
▁Kr	-11.6571
esi	-11.6571
▁wholly	-11.6573
▁prehistoric	-11.6574
▁Mull	-11.6574
▁failing	-11.6574
▁Saturn	-11.6575
mina	-11.6576
phan	-11.6578
mag	-11.6578
▁Flash	-11.6579
▁drawings	-11.6584
▁mate	-11.6584
ect	-11.6586
▁Gandhi	-11.6586
DI	-11.6591
▁nurse	-11.6592
▁Ark	-11.6592
▁Formerly	-11.6592
flower	-11.6593
▁tobacco	-11.6595
▁crop	-11.6596
LL	-11.6599
Qu	-11.6599
▁trace	-11.66
▁(0000-00).	-11.6601
▁taxes	-11.6601
kō	-11.6602
▁demo	-11.6603
▁reggae	-11.6606
▁specialty	-11.6606
▁messages	-11.6606
▁lighting	-11.6606
lene	-11.6606
▁selective	-11.6607
▁fr	-11.6609
Sch	-11.661
▁suite	-11.6612
▁Flu	-11.6613
▁atoms	-11.6615
▁Moroccan	-11.6616
▁funeral	-11.6616
▁lasting	-11.6616
▁demonstrate	-11.6617
▁princess	-11.6619
▁professionals	-11.6619
▁wearing	-11.662
RE	-11.6623
spor	-11.6624
▁Shield	-11.6624
▁Sig	-11.6626
▁sailed	-11.6626
▁curriculum	-11.6626
▁explosive	-11.6626
▁excellent	-11.6626
▁threw	-11.6626
น	-11.6627
▁journalists	-11.6634
▁wage	-11.6636
▁textile	-11.6636
▁Afghan	-11.6636
▁Hus	-11.6637
▁Tropical	-11.6638
▁drinking	-11.6642
ogo	-11.6646
▁excess	-11.6647
▁Gui	-11.6647
▁legacy	-11.6647
▁sal	-11.665
▁challenged	-11.6651
▁Mohamed	-11.6657
▁acids	-11.6658
▁mouse	-11.6658
tors	-11.6659
San	-11.666
▁Rim	-11.666
emon	-11.6662
mund	-11.6663
sun	-11.6664
Per	-11.6665
▁guided	-11.6665
mul	-11.6667
▁ceremonies	-11.6668
▁stationed	-11.667
imp	-11.6672
▁molecule	-11.6672
week	-11.6675
▁Chau	-11.6676
▁Witt	-11.6677
▁Break	-11.6678
ht	-11.6678
▁ceremonial	-11.6678
▁bonds	-11.6679
▁Darwin	-11.6679
▁Campo	-11.6681
▁coral	-11.6682
DE	-11.6683
▁unclear	-11.6683
▁rim	-11.6683
▁reflected	-11.6685
▁sing	-11.6686
▁allied	-11.669
▁Hesse	-11.6691
▁Corner	-11.6694
ked	-11.6694
▁Hyper	-11.6697
CU	-11.6698
▁statute	-11.6699
▁carved	-11.6701
▁000.000	-11.6704
uchi	-11.6705
European	-11.6706
gua	-11.6707
▁deity	-11.6709
ching	-11.671
▁Inspector	-11.671
▁Platinum	-11.671
▁pistol	-11.671
▁sauce	-11.671
▁Door	-11.6711
▁odd	-11.6712
▁Yuan	-11.6712
lau	-11.6715
▁00/00	-11.6716
large	-11.6718
▁fruits	-11.6719
▁consul	-11.6719
▁specimen	-11.6719
▁ancestor	-11.6719
▁Toledo	-11.672
▁prepare	-11.6722
oga	-11.6723
▁Lynch	-11.6723
green	-11.6725
▁0000/0000	-11.6726
izer	-11.6726
▁outlets	-11.6728
▁Geometridae	-11.6731
▁polar	-11.6733
▁Cop	-11.6734
▁photos	-11.6734
▁Often	-11.6734
ality	-11.6737
hou	-11.6737
▁Roma	-11.6737
▁Put	-11.674
▁Treasury	-11.6741
▁specialising	-11.6742
▁erect	-11.6743
nas	-11.6744
▁Have	-11.6745
▁Leg	-11.6745
wu	-11.6745
NO	-11.6746
▁aftermath	-11.6746
▁Grass	-11.6751
▁Antwerp	-11.6752
▁Irving	-11.6753
▁adviser	-11.6755
ott	-11.6756
▁Bangladeshi	-11.676
▁charitable	-11.6762
▁Furthermore	-11.6763
▁Roberto	-11.6763
▁uni	-11.6765
▁Partners	-11.6765
▁Fear	-11.6768
▁bacterium	-11.6768
▁branded	-11.6768
▁golfer	-11.6769
▁draws	-11.6771
dh	-11.6771
tent	-11.6772
▁licence	-11.6773
lah	-11.6775
▁Prussian	-11.6777
▁dynamics	-11.6778
▁Ple	-11.678
lig	-11.6781
FS	-11.6781
▁modeling	-11.6782
ก	-11.6783
▁Applied	-11.6783
garde	-11.6787
▁Cotton	-11.6787
▁sphere	-11.6787
▁Castro	-11.6787
▁Mora	-11.6788
▁fold	-11.6788
nee	-11.6788
▁Zar	-11.6789
frame	-11.679
Gra	-11.6793
▁genome	-11.6794
▁flew	-11.6794
ages	-11.6795
▁Aur	-11.6796
▁Kang	-11.6798
▁jumping	-11.6799
ən	-11.68
▁enhance	-11.68
▁chorus	-11.6804
▁Urdu	-11.6805
mbo	-11.6805
alla	-11.6806
Ge	-11.6806
▁directorial	-11.6806
▁favourite	-11.6808
▁Sheikh	-11.6809
kur	-11.6809
eight	-11.6812
▁gable	-11.6812
▁flu	-11.6812
▁HC	-11.6815
▁Universities	-11.6815
▁iTunes	-11.6815
▁Mira	-11.6816
▁Andreas	-11.6816
▁evil	-11.6817
▁Nas	-11.6819
▁Aki	-11.6819
▁Dra	-11.6821
sher	-11.6822
Ru	-11.6823
▁Tap	-11.6823
és	-11.6823
▁Pioneer	-11.6825
▁Norwich	-11.6825
▁nobility	-11.6826
moto	-11.6827
ld	-11.683
▁Annie	-11.6833
▁Rie	-11.6835
▁underwent	-11.6836
▁Spider	-11.6837
thal	-11.6837
▁innovation	-11.6837
nice	-11.6839
▁regulated	-11.6842
▁regulatory	-11.6845
▁fin	-11.6847
▁miniseries	-11.6847
nning	-11.6851
▁mega	-11.6852
▁UC	-11.6852
▁bra	-11.6852
▁Dou	-11.6852
▁grave	-11.6858
▁Beauty	-11.6858
ctor	-11.6859
▁slavery	-11.6859
logist	-11.6859
▁negotiations	-11.686
▁Leigh	-11.6862
gni	-11.6862
lier	-11.6863
▁kW	-11.6868
▁conviction	-11.687
▁Pomerania	-11.687
î	-11.6871
▁dealer	-11.6871
previously	-11.6875
▁rod	-11.6875
LE	-11.6877
MU	-11.6878
▁Agreement	-11.6878
help	-11.6879
▁Poetry	-11.6879
▁unions	-11.688
▁refugees	-11.6882
▁slowly	-11.6882
▁fiber	-11.6882
▁Lei	-11.6883
ál	-11.6884
▁Flo	-11.6885
UC	-11.6885
King	-11.6889
▁Baja	-11.6889
▁phenomena	-11.6889
▁Exeter	-11.6889
▁Ling	-11.689
▁Stephan	-11.689
▁Sco	-11.6891
▁Río	-11.6891
named	-11.6892
gill	-11.6893
▁Eden	-11.6898
▁lease	-11.6902
ulla	-11.6903
▁comprise	-11.6904
▁Nur	-11.6906
▁surrender	-11.691
▁bark	-11.6915
hee	-11.6915
|	-11.6916
▁Disc	-11.6918
Hip	-11.6919
▁000),	-11.692
▁Nicolas	-11.692
▁everyday	-11.6921
▁masculine	-11.6921
▁Sometimes	-11.6922
stream	-11.6922
rol	-11.6922
▁Seminary	-11.6923
▁Scout	-11.6924
▁RR	-11.6924
ière	-11.6925
pass	-11.6925
▁Educational	-11.6926
▁cartoonist	-11.6926
▁prayer	-11.6926
▁Communication	-11.6927
anne	-11.6929
Black	-11.693
▁Dictionary	-11.6932
▁Technologies	-11.6932
▁handed	-11.6932
▁Interactive	-11.6932
▁Pul	-11.6933
▁pyramid	-11.6936
▁Lucy	-11.6938
▁shark	-11.6938
▁gravity	-11.6938
owa	-11.6939
▁Europa	-11.694
เ	-11.6942
▁Kolkata	-11.6942
ан	-11.6943
▁Countess	-11.6943
▁pace	-11.6943
▁sail	-11.6944
▁rivalry	-11.6945
▁Cliff	-11.6946
osh	-11.6947
▁Ž	-11.6948
vu	-11.6949
▁keyboardist	-11.695
▁ng	-11.6952
▁numerical	-11.6953
assa	-11.6955
▁Cherry	-11.6956
▁Xu	-11.6958
other	-11.6959
▁Away	-11.6959
▁dream	-11.696
district	-11.696
bl	-11.696
▁Achievement	-11.6964
▁striking	-11.6964
▁federation	-11.6964
▁Bombay	-11.6964
▁navy	-11.6964
▁lectures	-11.6965
▁Chapman	-11.6966
Ki	-11.6967
▁decree	-11.6968
▁pig	-11.6968
▁Physical	-11.6968
▁crack	-11.6969
position	-11.697
▁evaluation	-11.6971
中	-11.6972
bes	-11.6974
▁promoter	-11.6974
▁armies	-11.6976
ency	-11.6977
▁mod	-11.6978
▁incomplete	-11.6979
stin	-11.6979
▁Word	-11.6979
▁gameplay	-11.698
▁interpreted	-11.6981
▁Griffin	-11.6982
▁Things	-11.6984
▁Bucharest	-11.6985
▁provisions	-11.6986
▁consumers	-11.6986
▁Cancer	-11.6986
▁silk	-11.6986
▁pursued	-11.6987
Au	-11.699
▁virtually	-11.699
▁sword	-11.6995
▁discrimination	-11.6996
▁Gha	-11.6997
CF	-11.6997
▁pe	-11.6998
▁websites	-11.7
▁ID	-11.7001
▁Bos	-11.7002
▁convert	-11.7004
▁Emergency	-11.7007
▁vegetation	-11.7007
▁acute	-11.7009
▁Percy	-11.701
hm	-11.7011
▁investor	-11.7013
ivity	-11.7015
▁Very	-11.7018
▁mascot	-11.7018
▁agree	-11.702
▁Riverside	-11.7025
▁Peri	-11.7026
▁restore	-11.7028
▁decide	-11.7028
▁geometric	-11.7028
onne	-11.7029
▁Pho	-11.7029
▁birthplace	-11.7029
▁chromosome	-11.7033
ک	-11.7036
ended	-11.7037
turn	-11.7037
▁Iz	-11.7039
rous	-11.7039
▁Scho	-11.7041
▁foods	-11.7041
▁Hale	-11.7043
▁cellular	-11.7043
▁Smart	-11.7043
▁Pak	-11.7046
GP	-11.7046
bara	-11.7046
▁wheels	-11.7047
▁Nagar	-11.7049
▁ages	-11.7049
odi	-11.705
▁explosion	-11.705
▁Weather	-11.705
▁spanned	-11.705
vari	-11.7052
▁Individual	-11.7052
▁Strong	-11.7053
▁Against	-11.7054
έ	-11.7059
▁og	-11.706
▁Levi	-11.706
▁Giuseppe	-11.7061
▁Floyd	-11.7061
▁Wake	-11.7061
▁mat	-11.7062
gene	-11.7064
▁notation	-11.7065
Ni	-11.7066
▁ك	-11.7066
▁Alexandra	-11.7068
▁simplified	-11.7069
▁tap	-11.707
▁scattered	-11.7072
▁geologist	-11.7072
▁globally	-11.7073
BI	-11.7073
▁chronic	-11.7074
guitar	-11.7075
▁proven	-11.7076
▁strain	-11.7076
ام	-11.7077
▁Macau	-11.7077
▁Coo	-11.708
▁WTA	-11.7082
▁Borneo	-11.7085
▁roster	-11.7085
▁detect	-11.7086
TH	-11.7089
▁anyone	-11.7091
▁torpedo	-11.7093
▁eighteen	-11.7094
▁Beautiful	-11.7094
▁Germanic	-11.7097
▁publish	-11.7098
tara	-11.7099
print	-11.7101
▁Northumberland	-11.7104
▁puzzle	-11.7104
▁rubber	-11.7105
▁filter	-11.7106
sio	-11.7106
▁relatives	-11.7107
▁Nik	-11.7109
▁Cham	-11.7109
▁circles	-11.7109
oso	-11.7111
▁Kemp	-11.7113
▁succeed	-11.7114
▁sixteenth	-11.7114
▁Duchess	-11.7115
EG	-11.7116
Fo	-11.7119
roll	-11.7123
yp	-11.7124
andra	-11.7125
▁Ceylon	-11.7126
▁Cologne	-11.7126
▁Burmese	-11.7126
▁stones	-11.7128
▁Cr	-11.713
▁shoulder	-11.7132
áng	-11.7132
hair	-11.7132
▁Devi	-11.7133
▁Marina	-11.7135
▁Bey	-11.7136
▁axis	-11.7137
▁emeritus	-11.7137
▁Madonna	-11.7137
▁foster	-11.7137
▁Bab	-11.7139
▁syndicated	-11.7139
test	-11.7139
▁pur	-11.714
▁rep	-11.7141
▁Learning	-11.7141
▁Oz	-11.7142
▁monitor	-11.7142
▁Gerard	-11.7143
evo	-11.7144
educational	-11.7144
kilometre	-11.7146
▁circa	-11.7147
▁facade	-11.7148
▁Facebook	-11.7148
▁Various	-11.7149
▁offshore	-11.7149
ession	-11.715
▁Eyes	-11.7151
▁ICC	-11.7151
▁Res	-11.7151
▁requirement	-11.7157
▁councillor	-11.7157
▁gets	-11.7158
▁Kraków	-11.7159
▁stating	-11.716
▁layout	-11.716
amp	-11.7162
zhi	-11.7163
▁Chand	-11.7166
▁Bolton	-11.7167
▁Theory	-11.7167
agan	-11.7168
_	-11.717
▁Journey	-11.717
▁nursing	-11.717
▁anything	-11.717
▁aggregate	-11.717
▁Bomb	-11.7172
▁Arrow	-11.7173
garh	-11.7173
▁à	-11.7174
building	-11.7174
▁thesis	-11.7175
illy	-11.7177
ís	-11.7177
ь	-11.7178
▁Mach	-11.718
▁Gibraltar	-11.7181
▁hormone	-11.7181
▁rankings	-11.7181
▁Beer	-11.7182
▁assembled	-11.7183
▁undertaken	-11.7184
ango	-11.7185
▁PBS	-11.7186
ա	-11.7188
was	-11.7189
▁Mikhail	-11.7191
NI	-11.7191
bil	-11.7192
▁Grammar	-11.7194
▁Morton	-11.7195
▁Kla	-11.7197
BM	-11.7198
▁hymn	-11.7199
▁Lub	-11.7201
▁doubt	-11.7201
▁riders	-11.7202
▁00.0000	-11.7202
▁epithet	-11.7202
▁Tobago	-11.7202
▁Bally	-11.7203
enter	-11.7204
▁Hassan	-11.7204
▁else	-11.7205
sign	-11.7206
▁Cool	-11.7209
▁rector	-11.7209
Coordinates	-11.7212
gur	-11.7213
▁Zhu	-11.7213
▁browser	-11.7213
▁Odisha	-11.7214
▁Winchester	-11.7214
ი	-11.7214
dder	-11.7214
▁editors	-11.7215
▁attractions	-11.7216
nay	-11.7217
pia	-11.7218
▁Truth	-11.7219
▁warning	-11.7221
▁Online	-11.7223
duct	-11.7224
▁Wimbledon	-11.7224
▁punishment	-11.7225
▁adopt	-11.7227
ural	-11.7227
▁hope	-11.7228
▁Helena	-11.723
ider	-11.723
▁Erie	-11.7231
▁Bet	-11.7232
isha	-11.7232
▁explained	-11.7236
lund	-11.7236
▁Bonn	-11.7236
▁pu	-11.7237
▁Vocal	-11.7237
▁IPA	-11.7243
▁Mana	-11.7243
ndi	-11.7243
▁theaters	-11.7245
ough	-11.7246
▁revision	-11.725
▁Priest	-11.7252
té	-11.7253
▁eat	-11.7253
▁Gö	-11.7254
▁spectators	-11.7256
▁hypothesis	-11.7258
▁ethics	-11.7258
▁Siege	-11.7259
▁Maxwell	-11.726
▁cooperative	-11.7261
▁Samoa	-11.7263
▁Nag	-11.7264
▁consistently	-11.7265
▁ج	-11.7267
▁explanation	-11.7269
▁Staffordshire	-11.7269
vie	-11.7272
grave	-11.7272
color	-11.7272
▁Sharp	-11.7273
▁Basil	-11.7275
▁0000-0	-11.7277
▁Canton	-11.7278
ifying	-11.7279
▁technological	-11.728
train	-11.7281
bahn	-11.7282
owner	-11.7282
▁Maya	-11.7284
INE	-11.7285
▁Sn	-11.7285
▁contestants	-11.7285
mail	-11.7287
oki	-11.7288
▁Kerr	-11.729
▁Zero	-11.7291
▁Wagner	-11.7291
▁Philippe	-11.7292
▁rings	-11.7294
▁ear	-11.7294
▁Saxon	-11.7295
▁measurements	-11.7295
▁Dock	-11.7296
▁Māori	-11.7298
▁Bé	-11.7298
▁Nun	-11.7298
ου	-11.73
▁Clarence	-11.7302
▁thing	-11.7302
▁convey	-11.7303
▁desired	-11.7303
UP	-11.7303
▁Search	-11.7303
▁promotes	-11.7304
▁prelate	-11.7304
▁IC	-11.7307
serving	-11.7308
lk	-11.7309
▁Lambert	-11.7311
▁affair	-11.7311
▁continuation	-11.7313
▁estimates	-11.7313
cid	-11.7315
▁Norton	-11.7317
▁jail	-11.7317
▁ti	-11.7317
▁reactor	-11.7319
▁respond	-11.7323
▁rectangular	-11.7324
▁Goa	-11.7324
▁accordance	-11.7324
▁breakthrough	-11.7324
▁substitute	-11.7326
▁Webb	-11.7327
▁Carey	-11.7327
▁Latter	-11.7327
cess	-11.7328
▁duet	-11.7329
▁parade	-11.7331
▁Kenyan	-11.7332
▁prey	-11.7333
mill	-11.7334
▁adapt	-11.7334
▁fighters	-11.7334
▁item	-11.7335
▁biblical	-11.7335
▁Felix	-11.7336
▁knight	-11.7337
▁vital	-11.7337
▁prefer	-11.734
▁travelling	-11.734
coming	-11.7341
▁Pasha	-11.7342
▁Lead	-11.7343
channel	-11.7345
▁Whitney	-11.7347
▁regardless	-11.7347
▁namesake	-11.7347
mac	-11.7348
▁Lap	-11.735
▁pot	-11.7352
▁Rifle	-11.7352
▁returns	-11.7352
hawk	-11.7353
▁Hind	-11.7354
▁prefecture	-11.7354
loo	-11.7355
hwa	-11.7357
▁SK	-11.7357
▁choreographer	-11.7357
▁garrison	-11.7357
▁indicating	-11.7357
▁Coventry	-11.7358
ivo	-11.7361
▁enables	-11.7363
▁Southeastern	-11.7367
▁Kee	-11.7368
▁Conservatory	-11.7369
▁everything	-11.7369
▁humanitarian	-11.7369
▁Tab	-11.737
▁Hanover	-11.7371
RD	-11.7372
▁GP	-11.7372
▁Administrative	-11.7373
▁Stern	-11.7375
dos	-11.7375
▁finest	-11.7376
ב	-11.7377
▁González	-11.738
▁Documentary	-11.738
▁Rep	-11.738
gos	-11.738
▁lawsuit	-11.7381
▁detection	-11.7381
▁Vista	-11.7382
lach	-11.7383
▁landed	-11.7383
▁boom	-11.7385
▁dorsal	-11.7391
Ad	-11.7392
▁gram	-11.7393
▁archive	-11.7394
▁Tem	-11.7397
▁observations	-11.7397
▁insect	-11.7398
uring	-11.74
Ti	-11.7401
▁highways	-11.7401
Armenian	-11.7402
▁Constituency	-11.7402
▁Khorasan	-11.7402
ström	-11.7402
▁spiders	-11.7403
!,	-11.7404
▁Château	-11.7406
▁Frontier	-11.7407
▁aboard	-11.7407
▁linking	-11.7408
▁shifted	-11.741
rica	-11.7413
▁communicate	-11.7413
▁leather	-11.7413
▁Quartet	-11.7413
ondo	-11.7414
▁scout	-11.7415
eum	-11.7416
▁Imp	-11.7417
pil	-11.7419
▁Ко	-11.7422
▁transcription	-11.7422
▁Ibrahim	-11.7425
▁jockey	-11.7425
▁quartet	-11.7425
▁Conrad	-11.7426
▁Dixon	-11.7427
cel	-11.7429
▁Bac	-11.7429
▁upgraded	-11.7432
▁Noble	-11.7435
▁lady	-11.7435
▁voyage	-11.7436
▁Kul	-11.7437
▁artifacts	-11.7437
▁Wide	-11.7438
IV	-11.7439
▁deliver	-11.744
comb	-11.7443
▁spy	-11.7444
lian	-11.7444
▁peaks	-11.7445
▁Dio	-11.7446
▁Nixon	-11.7448
iano	-11.7449
app	-11.7449
-0-	-11.745
▁airports	-11.7455
▁var	-11.7457
▁introducing	-11.7458
ว	-11.7458
▁sociology	-11.7458
▁Fitz	-11.7459
nium	-11.7459
▁knee	-11.7459
▁Typically	-11.7461
▁Cant	-11.7461
▁approximate	-11.7463
▁Rak	-11.7464
▁counts	-11.7467
SV	-11.7467
▁Breton	-11.7468
▁Stand	-11.7468
▁fourteenth	-11.7469
▁olive	-11.7469
▁seventeen	-11.7469
▁Nau	-11.7469
▁Dana	-11.7469
▁Arsenal	-11.747
nine	-11.747
▁granite	-11.747
▁Hardy	-11.7471
▁chicken	-11.7472
makers	-11.7473
▁Corp	-11.7475
▁attained	-11.7476
▁Midland	-11.7477
ats	-11.7477
▁physically	-11.7478
bis	-11.7478
▁herb	-11.748
▁Mozambique	-11.7481
▁Omaha	-11.7481
▁Swimming	-11.7481
▁ecological	-11.7481
▁gaming	-11.7481
▁Hour	-11.7482
vre	-11.7486
▁reformed	-11.7486
▁Intel	-11.7488
▁percussion	-11.7488
Ri	-11.7489
cil	-11.7489
uki	-11.749
ǐ	-11.7492
▁barrister	-11.7492
lett	-11.7492
▁prevalent	-11.7493
▁plateau	-11.7493
▁archaeologist	-11.7494
▁Touch	-11.7495
force	-11.7495
▁Brock	-11.7498
▁Churchill	-11.7498
اد	-11.7499
▁customs	-11.7501
▁Г	-11.7501
▁"00	-11.7501
▁Neg	-11.7502
yat	-11.7503
▁rape	-11.7503
▁quantity	-11.7503
▁turtle	-11.7504
▁plantation	-11.7504
▁FK	-11.7505
ias	-11.751
comp	-11.751
BO	-11.7513
COM	-11.7513
▁prose	-11.7513
chang	-11.7514
▁Sacred	-11.7515
▁LID	-11.7515
/00	-11.7517
▁icon	-11.7517
tics	-11.7518
▁inhibitor	-11.7525
▁Masovian	-11.7526
▁governance	-11.7527
▁myth	-11.7527
kat	-11.7528
ñ	-11.753
▁CR	-11.753
flu	-11.7531
▁unofficial	-11.7532
▁organist	-11.7533
HO	-11.7535
▁tries	-11.7536
lɛ	-11.7536
▁voluntary	-11.7538
▁Boeing	-11.7538
National	-11.7538
▁Malawi	-11.7539
▁lyricist	-11.7539
▁acquire	-11.754
Australian	-11.7541
▁Victory	-11.7544
▁Beth	-11.7548
▁Newark	-11.7549
▁friendship	-11.7551
established	-11.7552
▁push	-11.7553
▁blend	-11.7553
▁Lav	-11.7557
▁addressed	-11.7559
▁Mand	-11.7559
▁corridor	-11.756
▁Gdańsk	-11.756
▁hiking	-11.7561
-0000)	-11.7562
▁Guitar	-11.7564
EX	-11.7565
▁MBE	-11.7565
drums	-11.7565
PE	-11.7569
▁Till	-11.7572
▁Mystery	-11.7572
▁Valle	-11.7573
▁Honorary	-11.7574
▁trucks	-11.7575
▁Gat	-11.7576
nian	-11.7577
Du	-11.7578
writing	-11.7579
wai	-11.758
▁easier	-11.7583
▁محمد	-11.7583
▁overlooking	-11.7585
▁Wait	-11.7585
▁Wine	-11.7585
▁resembles	-11.7587
▁Borg	-11.7587
jō	-11.7588
▁Rem	-11.7588
▁Silesian	-11.7593
gai	-11.7593
▁Warwickshire	-11.7595
▁Direct	-11.7595
cla	-11.7596
▁Hanna	-11.7596
▁Holt	-11.7598
mour	-11.7599
Min	-11.76
▁tro	-11.7602
uto	-11.7604
ḥ	-11.7606
▁pedestrian	-11.7606
brown	-11.7607
▁Avi	-11.7611
▁Uruguayan	-11.7613
▁filming	-11.7613
inder	-11.7613
dre	-11.7615
nea	-11.7615
▁sovereign	-11.7616
▁Honduras	-11.7617
▁Cherokee	-11.7617
▁Flanders	-11.7617
▁Empress	-11.7618
▁corporations	-11.7619
DO	-11.7619
▁enacted	-11.762
▁Hank	-11.762
▁Bam	-11.762
▁Easter	-11.7622
▁Ox	-11.7623
▁sketch	-11.7624
disc	-11.7626
▁Barn	-11.7629
▁industrialist	-11.7631
isi	-11.7631
esis	-11.7634
▁seized	-11.7635
iber	-11.7636
▁Gala	-11.7638
tsch	-11.7638
▁essay	-11.7639
▁workshops	-11.7639
▁conventions	-11.764
▁landscapes	-11.7641
abe	-11.7641
ω	-11.7642
▁Directors	-11.7644
▁consequence	-11.7644
▁poorly	-11.7645
то	-11.7645
lder	-11.7646
ugu	-11.7646
▁Mod	-11.7649
▁AB	-11.765
▁Haz	-11.765
▁expelled	-11.7652
▁ultra	-11.7652
▁Evangelical	-11.7652
▁wake	-11.7653
ND	-11.7654
▁Photo	-11.7654
▁Kali	-11.7655
▁reelection	-11.7655
▁Fle	-11.7657
▁translates	-11.7657
▁Bowie	-11.7658
sund	-11.7658
since	-11.766
word	-11.766
▁biographical	-11.7663
▁multinational	-11.7664
yuan	-11.7667
▁finalist	-11.7668
achi	-11.7668
▁Gai	-11.7668
▁developments	-11.7668
▁Atari	-11.7669
▁Ner	-11.767
▁strictly	-11.7671
▁occurrence	-11.7675
▁heavyweight	-11.7676
▁della	-11.7678
▁Kami	-11.7679
▁Hawk	-11.7679
dition	-11.7681
▁Sue	-11.7682
▁Willis	-11.7683
osi	-11.7684
▁Batt	-11.7685
▁captained	-11.7685
▁Hyde	-11.7687
may	-11.7687
▁Libya	-11.769
▁Sikh	-11.769
Day	-11.7691
▁Gam	-11.7691
▁screening	-11.7691
nath	-11.7692
▁descended	-11.7693
ardi	-11.7694
▁pm	-11.7694
anthus	-11.7696
▁Rebecca	-11.7698
▁consensus	-11.7698
▁radius	-11.7698
▁Bald	-11.7698
▁oversee	-11.7698
▁consulting	-11.7702
▁renovation	-11.7703
▁proportional	-11.7704
▁Dro	-11.7704
▁Glo	-11.7704
▁(0-0	-11.7707
▁fragments	-11.7708
▁politically	-11.7708
▁pad	-11.7709
▁sworn	-11.7709
▁baby	-11.7711
BB	-11.7713
▁Rise	-11.7714
▁enabled	-11.7717
▁Sherman	-11.7717
atum	-11.7718
▁MLB	-11.7718
yar	-11.7719
ité	-11.7721
▁condemned	-11.7723
▁Gem	-11.7724
tru	-11.7724
dō	-11.7725
Mon	-11.7727
▁Rhodes	-11.7727
rp	-11.773
▁civilians	-11.773
▁Did	-11.7731
TU	-11.7731
▁generating	-11.7732
▁Cavalry	-11.7732
▁diagnosis	-11.7732
▁nucleus	-11.7732
▁apex	-11.7733
▁Electronics	-11.7736
bli	-11.7736
▁Associated	-11.7736
▁beaches	-11.7737
▁Honey	-11.7738
Ed	-11.7738
▁reflects	-11.7738
▁CF	-11.7739
rier	-11.7741
▁Match	-11.7742
▁Champ	-11.7742
▁incarnation	-11.7744
▁Matsu	-11.7746
▁serialized	-11.7747
PT	-11.7747
▁flute	-11.7749
And	-11.7749
▁texture	-11.775
▁Shot	-11.7753
▁Lesser	-11.7753
▁zoo	-11.7755
▁chocolate	-11.7756
▁Abdullah	-11.7756
▁Shirley	-11.7757
EE	-11.7757
ook	-11.7757
▁Aviv	-11.7761
▁Hawks	-11.7764
▁Gee	-11.7765
zawa	-11.7767
▁Holiday	-11.7767
tō	-11.7769
▁clergyman	-11.777
▁atop	-11.777
fon	-11.7774
En	-11.7774
▁spa	-11.7776
▁charting	-11.7777
▁Deer	-11.7777
▁allegedly	-11.7779
▁documentaries	-11.7779
▁confusion	-11.7779
▁conceptual	-11.778
▁UCLA	-11.7781
▁shall	-11.7782
än	-11.7782
▁argument	-11.7785
DM	-11.7786
lad	-11.7786
▁civilization	-11.7787
▁councils	-11.7789
Sc	-11.7791
▁considerably	-11.7791
▁beta	-11.7792
kot	-11.7793
▁Pierce	-11.7794
self	-11.7795
▁pri	-11.7795
▁liner	-11.7798
▁kilometre	-11.7798
▁Eng	-11.7799
▁barn	-11.78
▁outcome	-11.78
around	-11.7803
▁Ö	-11.7808
▁planets	-11.7808
▁invention	-11.7811
ма	-11.7811
▁IUCN	-11.7812
▁Kuwait	-11.7813
▁archipelago	-11.7814
▁sometime	-11.7817
▁Michelle	-11.7819
▁publishers	-11.7819
come	-11.782
eto	-11.782
▁Cry	-11.782
▁dome	-11.7821
tsi	-11.7822
▁colleagues	-11.7822
▁SO	-11.7822
cke	-11.7824
⁡	-11.7826
▁mild	-11.7826
▁transmitted	-11.7826
lich	-11.7827
▁compatible	-11.7828
▁Standing	-11.7828
▁iOS	-11.7828
brand	-11.7832
ת	-11.7832
▁sizes	-11.7832
▁Mongol	-11.7834
dorf	-11.7835
yō	-11.7836
responsibilities	-11.7837
▁Religion	-11.7837
▁embedded	-11.7837
▁quantities	-11.7837
ہ	-11.7837
▁Psychology	-11.7837
▁0.0-	-11.7837
som	-11.7839
▁Alma	-11.784
▁Wool	-11.7842
▁nano	-11.7843
▁Chronicle	-11.7844
girl	-11.7845
▁Rapid	-11.7846
UM	-11.7846
▁syn	-11.7847
▁Cau	-11.7847
▁explored	-11.7848
▁arrondissement	-11.7849
▁electors	-11.7849
▁Lincolnshire	-11.785
album	-11.785
▁Wong	-11.785
É	-11.7851
ographer	-11.7854
▁rendered	-11.7854
▁variously	-11.7858
kowski	-11.7859
▁Initiative	-11.7861
▁Exhibition	-11.7861
▁(0000);	-11.7864
▁FBI	-11.7864
▁Mess	-11.7865
▁Janata	-11.7866
best	-11.7866
▁Similar	-11.7866
▁Progress	-11.7867
▁Shō	-11.7867
iness	-11.7867
▁Engine	-11.7868
fel	-11.7871
▁resemble	-11.7871
▁imaging	-11.7873
▁Albion	-11.7874
edge	-11.7874
▁Hir	-11.7879
▁Hiro	-11.788
▁Agent	-11.7881
▁voices	-11.7881
RB	-11.7882
▁spark	-11.7883
▁commanding	-11.7883
▁collaborations	-11.7883
str	-11.7884
▁comparable	-11.7884
▁Counsel	-11.7884
note	-11.7884
▁supernatural	-11.7884
▁Waterloo	-11.7885
▁united	-11.7885
yk	-11.7886
▁eighteenth	-11.7886
▁investigations	-11.7887
▁Guards	-11.7888
▁sto	-11.7888
Men	-11.789
▁Mayo	-11.7895
・	-11.7896
▁Pun	-11.7896
▁afternoon	-11.7896
▁substrate	-11.7896
uku	-11.7899
sser	-11.79
▁joins	-11.79
dt	-11.7901
▁idol	-11.7902
nock	-11.7903
▁cloth	-11.7903
▁feeding	-11.7905
▁ح	-11.7907
▁Senegal	-11.7907
▁Christine	-11.7908
▁gmina	-11.7908
chet	-11.7909
▁Nokia	-11.791
NT	-11.7911
umba	-11.7912
▁lab	-11.7915
▁Bah	-11.7915
nova	-11.7917
▁Host	-11.7918
▁Horizon	-11.792
km	-11.792
▁Terror	-11.792
▁sh	-11.792
polis	-11.792
human	-11.7921
GM	-11.7924
▁reopened	-11.7924
▁Chil	-11.7925
▁prizes	-11.7926
▁boss	-11.7927
▁mountainous	-11.7927
cken	-11.7931
▁Freeman	-11.7931
▁López	-11.7931
▁fraction	-11.7932
▁Nile	-11.7933
▁Jake	-11.7934
▁canceled	-11.7935
▁Niger	-11.7936
▁$00.0	-11.7936
▁tan	-11.7938
▁Rising	-11.794
▁Cali	-11.7941
▁wrong	-11.7942
dad	-11.7942
▁Excellence	-11.7943
▁wheat	-11.7943
▁commemorate	-11.7943
six	-11.7944
▁seventeenth	-11.7945
how	-11.7945
tner	-11.7947
bun	-11.7947
▁threats	-11.7947
▁Ada	-11.7948
▁hi	-11.795
slav	-11.7953
▁Heroes	-11.7953
▁Religious	-11.7955
▁linebacker	-11.7955
▁Rib	-11.7956
▁Emb	-11.7956
vic	-11.7957
hra	-11.7957
▁activists	-11.7957
▁Torres	-11.7957
▁Karachi	-11.7957
▁trouble	-11.7958
tag	-11.796
oj	-11.7964
▁Sche	-11.7967
▁Fletcher	-11.7967
▁preliminary	-11.7967
ア	-11.7967
▁montane	-11.7967
▁Suzuki	-11.7967
▁Patriot	-11.7968
▁Trent	-11.7968
▁catch	-11.7972
▁psycho	-11.7972
▁Laos	-11.7973
▁organs	-11.7973
▁Ut	-11.7973
▁cabin	-11.7974
▁immigrant	-11.7977
▁tenor	-11.7977
▁predict	-11.7978
▁Pleasant	-11.7979
haven	-11.798
fur	-11.798
▁0.000°	-11.798
▁0.00%	-11.7981
▁Fel	-11.7981
kir	-11.7981
▁Pole	-11.7983
script	-11.7985
▁frontier	-11.7987
▁Andes	-11.7988
▁Viktor	-11.7988
odont	-11.7989
▁Omar	-11.7991
▁kitchen	-11.7991
▁Primera	-11.7991
öl	-11.7992
instrumentalist	-11.7995
▁climb	-11.7995
lei	-11.7996
▁Cities	-11.7997
▁Brandon	-11.7999
▁Giro	-11.8
▁centimeters	-11.8
▁Pulitzer	-11.8002
▁Alfonso	-11.8003
▁crossover	-11.8005
▁fifteenth	-11.8007
▁Edo	-11.8008
otti	-11.8009
▁Hom	-11.801
▁Own	-11.8011
▁bro	-11.8011
▁sanctuary	-11.8014
▁Philharmonic	-11.8014
▁Broncos	-11.8014
▁plasma	-11.8015
wl	-11.802
−0	-11.8021
▁Friend	-11.8022
▁*	-11.8023
▁domains	-11.8024
erie	-11.8024
uddin	-11.8026
▁abilities	-11.8027
▁Bot	-11.8027
▁BMW	-11.8028
▁Lib	-11.8028
▁Janet	-11.803
saur	-11.8031
asso	-11.8031
▁MIT	-11.8031
Romanian	-11.8032
mand	-11.8034
etto	-11.8034
hani	-11.8034
TT	-11.8034
▁Valencia	-11.8034
Ph	-11.8037
▁digitally	-11.8037
▁statements	-11.8038
▁Mathematical	-11.8038
▁affiliation	-11.8038
▁autobiography	-11.8038
▁Dundee	-11.8038
▁Wor	-11.804
▁cubic	-11.8041
▁NHS	-11.8043
▁activated	-11.8045
active	-11.8045
▁panels	-11.8047
▁Isles	-11.8048
pura	-11.8049
▁hurdles	-11.805
▁scrapped	-11.805
▁subordinate	-11.8051
▁curved	-11.8051
kari	-11.8051
▁Aid	-11.8052
▁Expressway	-11.8053
▁FIA	-11.8053
▁Drew	-11.8053
▁oxide	-11.8054
▁tu	-11.8054
▁Ç	-11.8055
▁Teen	-11.8057
lant	-11.806
▁Batman	-11.806
▁Burg	-11.806
▁Um	-11.8064
▁addresses	-11.8066
▁Helm	-11.8066
▁eaten	-11.8067
▁drag	-11.8067
▁Comic	-11.8069
EF	-11.8069
tani	-11.807
uti	-11.8071
▁foundations	-11.8071
▁danger	-11.8072
ffin	-11.8074
▁Lit	-11.8074
▁militant	-11.8074
▁strategies	-11.8074
mers	-11.8075
?)	-11.8076
▁Guyana	-11.8077
▁orbital	-11.8081
iyah	-11.8083
[...]
